#version: 0.2 - Trained by `huggingface/tokenizers`
Ġ d
e s
e n
Ġ a
Ġd e
e r
Ġ l
Ġ p
t a
Ġ c
q u
a r
e l
Ġ s
a n
c i
o n
Ġ i
r e
o r
Ġl a
Ġ qu
a l
Ġ m
u n
Ġ el
t i
Ġqu e
en t
Ã ³
a t
Ġ t
Ġ v
Ġ f
Ã ©
o m
o s
Ġp er
i n
Ġ n
o l
i s
Ġ en
r a
Ġ un
Ġ h
Ã ł
Ġ es
Ġde l
r i
ci Ã³
Ã© s
r es
e m
ta t
i c
Ġa l
Ġ C
r o
a d
Ã ¨
m b
Ã Ń
on s
Ġ E
i t
g u
Ġs e
Ġl es
i x
Ġc om
i a
Ġ re
a s
Ġ P
m ent
Ġn o
Ã ²
Ġel s
Ġ A
l a
e c
Ġi n
Ġa mb
t s
qu es
Ġh a
u s
Ġ L
Ġ g
i r
Ġ b
Ġc on
l e
Ġ S
Ġ o
ta l
a ciÃ³
Ġ M
Ġ e
Ġun a
Ġv a
i l
Ġp ro
v a
an t
o t
u r
d a
c a
u l
Ġd i
Ġ Ã©s
i tat
Ġc a
ta r
t es
Ġd es
d i
t u
Ġp ar
ci a
ad a
Ġ D
o c
Ġ j
t e
Ġ (
o b
Ġ 1
Ġ B
ĠE l
Ġ "
Ġ T
ta n
. .
s i
t er
Ġm Ã©s
Ã §
Ġdel s
Ġa n
er a
l i
Ã¨ n
e ix
al s
m p
Ġs er
Ã º
an y
v er
on a
i d
e t
Ġ 2
Ġa ques
Ġ R
u p
ci ons
Ġ G
r an
o d
ic a
- -
el l
a c
i g
Ġ F
Ġa c
or m
e u
Ġ -
t ra
Ġe x
em p
e g
en s
it z
Ġ I
u t
b l
Ġ V
ti n
ri a
â Ģ
Ġ J
Ġ res
ĠL a
Ġcom p
Ã¨n cia
Ġ N
i m
u m
t r
as s
Ġl l
0 0
Ġs i
a b
or s
ti c
at s
Ġc ons
d e
v i
is t
Ġm ol
i ci
Ġp res
Â ·
Ġ Ċ
ĠC a
al l
Ġes p
Ġ r
an s
u c
Ġt ot
en d
Ġf a
ent re
Ġre c
Ġ U
f er
Ġ ta
ci on
Ã³ n
ent s
in s
Ġp re
Ġca p
Ġf er
an a
Ġse u
Ġh i
m e
v es
t res
h a
ri m
ad es
o p
t or
tan t
ĠE n
or d
Ġp od
Ġp r
ÃŃ s
o ci
e d
Ġa r
y a
Ġp os
mb Ã©
ar i
Ġp el
Ġper Ã²
ĠE s
s s
Ġt o
Ġaques t
y s
ĠP er
ar c
ob re
Ġse va
es s
m a
n a
Ġal s
Ġp a
Ġa ix
Ġpar ti
Ġm at
ĠCa tal
Ġo b
Ġt en
or t
i u
r Ãł
Ġv an
b re
il l
p ar
Ġc as
Ġt ra
Ġj a
Ġ H
-- --
g e
.. .
e x
p os
Ã§ a
t re
Ġm a
ti ca
e gu
ta ment
ar a
Ġper s
or a
is ta
v en
ĠC om
re c
Ġmol t
Ġv ol
Ġd is
Ġs obre
t Ãł
p r
u b
g a
Ã ¯
Ġh an
Ġi mp
Ġta mbÃ©
Ġca tal
er s
ti u
in a
un a
g ra
Ġn om
Ġt er
t en
l es
en ti
al itat
Ġc os
ri b
Ġp rim
en er
un ya
i Ã³
Ġm an
Ġp ass
Ġ entre
si Ã³
Ġse g
Ġp ol
âĢ Ļ
on es
tat s
Ġt re
e p
Ġc ar
en ta
Ġf orm
f orm
p er
ĠCatal unya
p l
l ar
f ic
qu Ã¨
Ġs Ã³n
j ec
ver s
0 1
s e
b le
Ġv i
Ġin ter
ti va
Ġn os
Ġes c
Ġen s
Ġc an
a v
al itz
Ġan ys
ci es
e b
ĠU n
Ġ 3
g i
a ques
p a
p i
ro b
Ġs up
Ġaques ta
al ment
E s
v ol
en tar
Ġc re
Ġa ss
Ġ1 9
Ġc ol
d es
Ã¨ s
Ġper quÃ¨
gu i
" .
Ġ on
v e
ĠEl s
d u
b all
Ġp l
Ã ¼
m in
Ġ O
Ġf ins
g un
Ġs oci
or n
Ġde m
o u
Ġqu an
Ġmat eix
pr Ã©s
ĠA l
Ġ em
ar Ãł
cion al
Ġh o
" ,
ver n
Ġd on
o g
Ġn i
u ra
arc el
Ġp ot
Ġp or
Ġg ran
Ġtre ball
ti tu
Ġaix Ã²
h i
en a
Ġre p
Ġs ol
qu i
Ġf et
Ġm es
Q u
u d
o vern
v ia
Ġf in
Ġin s
f ici
gu t
es ti
Ġm ar
Ġcon tra
) ,
Ġa b
ÃŃ n
Ġl li
Ġp u
any ol
il i
en ci
ĠN o
a m
Ġt rob
) .
ti r
ad or
Ġto ts
Ġt emp
Ġpar t
Ġa d
Ġc or
Ġpol ÃŃ
p end
arcel ona
is me
em a
any a
Ġs ens
Ġa p
bl ic
Ġcon c
Ġes tat
Ġc iu
d uc
ti l
ci p
itat s
r up
u g
Ġen c
tu ra
Ġ2 01
Ãł n
Ġes ta
ur s
Ġl i
in t
r er
Ġ Ã
v is
Ġes tÃł
Ġd ia
Ġ gu
i ta
Ġ Qu
r at
ur ant
Ġ tin
Ġse gu
Ġ or
ĠB arcelona
Ġa f
ĠA ques
g an
j a
de pend
Ġt Ã©
ti t
Ġ âĢ
Ġl le
Ġ tan
Ġ x
Ġv eu
er ra
ĠM ar
j un
Ġse us
Ġr el
Ġsens e
Ġqu Ã¨
Ġd os
Ġc al
ta ciÃ³
Ġdes prÃ©s
a i
o ts
es c
Ġg ener
ment s
is tes
d ic
ti v
Ġ 4
Ġin c
Ġ ent
ĠI n
an ts
l s
Ġal tres
Ãº s
Ġm un
en y
er t
Ġj o
Ġesp anyol
it j
Ġd ir
it s
ĠJ o
Ġm ill
Ġ ra
Ã² ria
Ġv al
u la
u re
---- ----
g es
at ge
ri c
it u
er i
Ġdi fer
Ġm en
Ġa ra
Ġres p
Ġm e
Ġc l
ul ar
ic s
Ãł ria
Ġqu al
in g
Ġv e
Ġpers ones
Ġp ob
Ġf e
Ġnom Ã©s
a p
Ġse t
Ġde f
a ment
Ġ tant
ter i
u i
l o
c at
id ent
f es
Ġm o
em bre
ti m
Ġp Ãº
u ro
a ix
Ġ emp
r en
an d
qu e
c ar
Ġ 5
Ġf or
Ġar rib
ci d
ad ors
Ġp un
Ġprim er
Ġll oc
Ġa v
Ġpro c
m en
Ġdi rec
em b
Ġ era
ĠL es
i ciÃ³
Ġa qu
Ã² m
Ġ X
em ent
Ġm al
Ġcon tin
Ġ2 00
h o
Ġd urant
! !
ol a
Ġc o
Ġde ix
Ġal gun
Ã² n
ca b
Ġ '
b il
Ġenc ara
p e
ī s
ti us
entar is
Ġin form
Ġse c
Ġg overn
Ġqu als
Ġcom en
ar an
a cions
ta d
re t
Ġre g
Ġs or
el la
in c
ĠA n
Ġs ub
Ġcom un
Ġ tal
w w
Ġcatal Ãł
Ã ¡
h an
gu a
on t
Ġc r
Ġman era
os a
or i
Ġt ran
on i
Ġn ec
Ġin depend
Ġa ut
ti ques
Ġpro jec
c s
Ġf un
l l
Ġg ent
al tres
ĠD e
Ġv er
r ar
s os
Ġtemp s
_ _
h e
re m
Ġg rup
Ġaix ÃŃ
Ġc ul
t ell
Ġs itu
bl es
pl ic
ĠP ar
Ġd u
Ġc ada
Ġv eg
ĠS i
f i
Ġel ec
gan itz
Ġqu i
a g
Ã¨n cies
Ġac tu
c es
ĠC on
j or
Ãł s
an es
Ġb Ã©
i vers
ĠD es
ri es
or es
ĠÃ īs
m et
tic s
Ġp e
re u
Ġm itj
Ġv is
Ġe t
Ġp la
ar d
ar is
Ġs in
Ġ us
Ġ Â
ĠC ons
Ġs al
Ġveu re
an da
on al
o ta
Ġm om
Ġdes c
emp re
Ġten ir
Ġha via
at re
Ġc ent
ĠS ant
Ġpr in
Ġmill or
m es
jun tament
tr uc
n s
Ġca mp
ĠCom entaris
Ã¨ c
Ġt res
Ġt e
f ec
ĠC ar
Ġno u
Ġ 6
Ġb en
eix en
Ġh ist
ĠV al
Ġb as
s a
ĠG ener
Ġser ve
Ġs ab
t ur
Ãł r
Ġp o
p or
ec on
n i
Ġi m
Ġt orn
a u
Ġfa m
l ia
b er
os t
Ġo p
tan ts
Ġtran s
x a
Ġrep res
f ica
Ġma jor
Ġnec ess
b or
Ġp ens
Ġpod er
ĠA ix
le g
i en
ell s
Ġpos si
Ġmun ici
Ġse ves
end re
Ġa m
u ciÃ³
p anya
Ġciu tat
i v
Ġcan vi
n e
Ġs enti
Ġun s
Ġdi vers
Ġtra c
Ġs empre
Ġll en
ti s
E R
t ÃŃ
av ant
c om
Ġform a
c al
Ġ Ãº
Ã§ ar
Ġa cab
Ġprim era
Ġ K
ĠR e
Ġre fer
o v
ol l
res a
00 0
tu di
Ġde c
Ġp as
d re
aques t
gu in
Ġpass at
Ġn eg
Ġpro gra
Ġsoci al
Ġn a
Ġcos a
ta c
m ar
ons egu
e ci
x im
Ġh em
Ġpro pos
e ta
Ġo c
d at
es ta
Ġb ar
Ġm in
d ia
Ġ ti
ĠA r
ĠC as
Ġvi da
n es
is tra
ĠL l
Ġmom ent
Ġd oc
ĠPer Ã²
qui p
e tat
Ġpel s
E S
v oc
Ġdifer ents
Ġm Ã³n
Ġparti t
es p
Ġes t
q Ã¼
an ta
Ġpa ÃŃs
Ġpres ident
Ġ 7
Ġesp eci
Ġc op
p u
ĠT a
Ġdu es
j ar
Ġten en
Ġm od
Ġc el
Ġ 8
Ġtot es
ĠD i
aques ta
Ġdi u
Ġprin cip
Ġm ili
Ġcontin u
g ar
Ġpro duc
Ġh e
Ġm Ãł
bl ica
ul l
Ġcons id
Ġap ro
si ons
ar s
i da
c ep
em es
Ġd avant
Ġ 9
Ġre alitz
Ġdon ar
Ġre b
r on
Ġc er
Ġdes en
Ġimp or
ix er
ÃŃ c
in es
Ġdi es
Ġac onsegu
te ix
Ġpod en
Ġseg ons
teri or
Ġ W
la ciÃ³
ĠpÃº blic
ar ia
enta ciÃ³
e vol
Ġres ul
un d
Â »
Ġsi gui
Ġf il
ri d
Ġ1 8
er es
E l
ti ves
e di
Ã³ s
ĠP a
an c
Ġaques ts
Ġin f
enti s
Ġ1 0
ĠpolÃŃ tica
ĠÂ «
r u
u til
Ġm os
la ment
vol up
Ġab ans
/ /
Ãł c
Ġset m
Ġ w
t t
.. ..
Ġesc ri
Ġ z
ĠAques t
min istra
Ġan y
Ġp oc
Ġ econ
un ci
Ġcon f
Ġes tan
Ġm i
Ġl oc
g l
v id
as c
Ġ tar
Ġva ig
es t
Ġor ganitz
ĠJ os
ol og
re ta
Ġ ri
Ġs ist
i gu
o ca
Ġmol ts
Ġdef ens
Ġprojec te
Ġj un
p res
Ġal g
g at
Ġs ig
ĠG u
Ġser Ãł
tor i
u di
ĠGener alitat
Ġto ta
ĠP S
Ġman i
tt p
ĠF ran
: //
u res
Ġpro bl
ur os
is s
util itz
er o
Ġnos tra
Ġdis c
l ec
v ar
u Ã¯
Ġpro p
Ġa g
ĠJ a
an Ã§
Ġparti cip
Ã² g
ĠA mb
ĠS al
Ġ2 0
i es
n o
A l
Ġin t
ĠL le
bil itat
i cia
a ut
ĠU na
Ġdesen volup
Ġre f
Ġ1 5
Ġmunici p
Ġg ra
Ġh om
Ġdis s
Ġres ta
Ġcel eb
er ia
Ġf ot
Ġnos tre
Ġpor ta
Ġno va
ĠP ro
ri ca
l ic
Ġb anda
Ġm er
t ors
l os
Ġcon tr
Ã ±
ab le
Ġv o
Ġac tiv
Ġd ar
Ġpu blic
Ġdem an
i ent
an Ã§a
i b
Ġan ar
Ġs ÃŃ
h om
Ġfin al
Ġgener al
Es tat
tr at
ul es
el s
v ell
r om
at ges
Ġa s
j o
ĠM a
Ġdis pos
emb la
Ġm or
er en
ci tat
Ġresp ec
Ġquals evol
Ġcas a
T A
er ci
Ġal tre
Ġsup ort
Ġmen ys
i ons
v al
1 9
es a
ĠG overn
A juntament
Ġi de
Ġgu any
ĠTa mbÃ©
ĠB ar
Ġecon Ã²m
g n
l us
ra da
ci s
Ġex emp
Ġ Ãł
Ġn orm
Ġd ins
Ġpun t
Ġcas tell
ĠP u
olog ia
Ġto tal
esti Ã³
ac tu
Ġll ar
Ġb aix
Ġsin Ã³
Ġper met
Ġciu tad
Ġj ug
a va
r al
Ġveg ada
Ġcon t
en c
ri p
ol s
Ġo fer
Ġparti r
Ġpre m
ri g
Ġp at
ves ti
Ġm ant
us t
ĠE uro
Ġcos es
Ġma i
Ġllen gua
Ġf ut
ĠJo an
Ġha ver
Ġc ri
Ġb l
Ġemp res
Ġa j
Ġpro f
Ġm et
Ġal l
er at
ar ra
Ġrec on
Ġcatal ana
ĠâĢ ĵ
Ġc urs
L a
ivers itat
ĠAques ta
om p
Ġl eg
at ur
ww w
Ġpr Ã²
n ica
v Ã©s
p us
Ġal tra
fic aciÃ³
Ġpob le
Ġv en
u ts
d is
Ġf an
ĠS eg
-------- --------
le x
Ġ1 2
Ġha b
ĠP P
ĠV a
Ġ ro
Ġaques tes
r os
qu en
is siÃ³
ci l
Ġcatal ans
Ġa par
ra c
Ġs ent
ri tori
Ġc lar
ac te
ai re
er n
ĠT ot
Ġh um
g in
um en
er ar
Ġex plic
tic le
is i
Ġf ran
Ġarrib ar
m at
i mp
Ġproc Ã©s
v ir
Ġmani fes
di ciÃ³
Ġde cid
Ġh ores
Ġalgun s
d em
Ã² s
Ġass egu
er aciÃ³
Ġes tar
ĠM on
a f
si on
tal s
Ġsist ema
Ġsitu aciÃ³
Ġpos ar
d ar
Ġpr om
u al
re ts
ord in
Ġpro pi
Ġp ri
Ġ utilitz
Ġnos tres
Ġ y
Ġno v
Ġ Ì
Ġtra vÃ©s
Ġpro fes
p ec
ĠD E
Ġfam ÃŃ
v at
Ġp en
Ġob jec
__ __
Ġs embla
l tim
el ec
ĠM ad
n ic
Ġinform aciÃ³
ac ord
Ġes tudi
Ãłn cia
Ġpe ti
ti a
ĠEs panya
pl ica
ri l
Ġdes p
Ġd in
om en
Ã¨ ixer
Ġcon eix
Ġpar a
Ġv iu
Ġqu atre
o f
g on
Ġtrob ar
Ġcon ver
Ġd it
op ular
Ġmajor ia
ĠC al
A N
Ġcap a
Ġti pus
ul i
ell es
Ġde b
Ġw eb
Ġav ui
Ġc entre
ĠÌ ģ
gu es
Ġin ten
c o
Ġsetm ana
Ġinter ess
Ġpers on
Ġd ret
Ġt el
Ġd ona
Ġserve is
Ã¨ r
Ġcomun ic
qu er
C I
Ġd en
ra ciÃ³
Ġgran s
Ġun es
Ġresp ons
Ġmateix a
Ġna cional
2 01
v ant
A R
ĠS er
Ġm entre
an o
Ġprogra ma
âĢ ĵ
ri en
Ġrec ord
ĠV i
Ġsenti t
Ġp ots
Ġha u
Ġs om
od e
Ãł ries
ass a
Ġesc ol
ĠCons ell
E N
Ġm on
Ġrel a
Ġca us
Ġf ou
Ġlle g
er m
Ġter me
ĠP la
Ġc Ãłr
ta da
Ġf ill
in i
Ġhist Ã²ria
Ġelec cions
Ġimpor tant
in ter
Ġcomp ar
Ġdi f
ÃŃ t
Ã¡ n
Ġpass ar
Ġc u
Ġm eu
or ia
Ġ1 7
Ġinter na
ur Ãł
c h
Ñ ı
Ã¯ sos
Ġcar rer
I I
i ra
Ġb on
oc rÃł
ĠC i
t ec
Ġpre gun
ol Ã²g
a qu
ĠA ra
ĠAix ÃŃ
Ġob li
Ġ ur
es tat
ol i
cion als
v in
Ġd ades
Ġseg Ã¼
ĠM an
i on
ĠA c
Ġmili ons
r era
Ġm arc
Ġb ona
qu erra
Ġr en
l u
or di
Ġf al
Ġd ist
Ġre un
Ġindepend entis
la bor
Ġexemp le
n os
Ġval enci
ĠMad rid
c er
I n
Ġe uros
ter na
l at
ar t
ÃŃ a
Ġv os
itz aciÃ³
Ġmes os
ĠC ol
U P
Ġcomen Ã§ar
om b
te g
O N
om a
Ġtin d
Ġparti ci
ĠJos ep
re tat
tr u
o gra
Ġt u
Ġl la
Ġa t
Ġg rÃł
Ġt Ã¨c
Ġserve i
gu al
Ġpers ona
Ġsoci etat
r is
un s
Ġo fici
Ġca m
Ġter ritori
Ġe fec
Ġin ici
Ġmant en
Ġel l
Ġh ttp
Ġc at
Ġfa ci
ĠUn iversitat
ĠC or
Ġdes ta
p on
om ia
Ġl ÃŃ
v or
Ġcomp any
ti ma
en tat
ri r
d or
Ġde ci
Ġpro du
h ora
Ġf ent
Ġmol tes
Ġ1 3
Ġin d
Ġe quip
Ġb o
Ġi l
ĠDes prÃ©s
Ġ1 4
Ġpossi ble
Ġins titu
Ġm us
u da
t ot
ter min
al a
ĠM as
ĠN a
Ġlli bre
Ġaqu ÃŃ
vis iÃ³
Ġs an
Ġfor Ã§a
Ġel ls
ir Ãł
Ġm ort
Ġex per
Ġpar lar
Ġaf ec
Ġni vell
Ġparti ts
Ġg aire
g ia
Ġl ÃŃn
Ġform aciÃ³
Ġ1 6
Ġm Ãºs
Ġ1 1
Ġm ig
i tal
E n
le t
Ġet c
ul s
Ġval or
tu bre
Ġesp ec
Ġex c
Ġ3 0
Ġpres entar
Ġten im
iv il
Ġ Ã¨
Ġdeix ar
em Ãł
t o
Ġs ota
tiv itat
ĠmÃł xim
s er
v eu
Ġs eny
ĠP al
Ġc ad
Ġx ar
form a
Ġdi rig
in e
ĠAix Ã²
ĠM un
Ġdivers os
li ci
di cions
Ã² r
A L
vi en
Ġz ona
Ġactiv itats
Ġpl ant
Ġb us
Ġtemp or
p ia
oci aciÃ³
Ġa gra
ad ora
Ġe uro
Ġm il
Ġpers onal
a mb
re g
Ġllar g
gu Ã©s
Ãł g
Ġtrac ta
ĠcÃłr rec
is c
Ġde u
Ġ Z
Ġcan di
Ġdirec tor
ĠPar lament
Ġin vesti
Ġt ri
ÃŃs tica
fic ar
I C
l la
ĠJ ordi
Ġcons ul
Ġindepend Ã¨ncia
Ġt r
Ã© n
A r
Ġd ones
a ta
voc at
ĠG ir
ir c
Ġcons ell
i f
c on
Ġcon egu
ĠS oci
Ġ 0
Ġt ur
tur al
Ġrec up
Ġpr Ãłc
Ġfe ina
u it
Ġnos altres
ĠC an
tu res
Ġs em
id es
Ġf os
Ġ [
A n
r Ã©s
Ġn Ãº
Ġcon jun
Ġsoci als
b a
3 0
Ġ19 9
A T
Ġ k
Ġaf eg
Ġab s
Ġcor res
1 1
pos ta
R C
i ques
Ġseg ona
Ġin di
Ġpar la
Ġalg una
Ġfa vor
Ã¨ m
Ġs on
ĠV all
Ġ2 5
Ġlle i
Ġdivers es
ĠH i
l ou
oc up
Ġd ic
res s
Ġv ots
Ġt or
a gra
Ġseu a
r ers
c Ã©s
Ġsub s
Ġaconsegu ir
v ista
Ġd rets
ci al
Ġ qÃ¼
2 0
il itat
Ġp opular
ĠP ol
Ġpun ts
ĠÃº ltim
Ġen ti
ĠCa mp
Ġrec urs
Ġj us
d o
alitz aciÃ³
b li
al e
Ġqu alitat
Ġs en
Ġf em
Ġpob laciÃ³
ĠM ol
Ġcontr ol
Ġveg ades
ĠSeg ons
Ġm ica
Ġre alitat
ob jec
truc ciÃ³
ĠVal Ã¨ncia
Ġrel aciÃ³
Ġim m
os pi
Ġprof ess
Ġdem ocrÃł
ĠVal enci
par tament
Ġs u
il la
ĠT or
h ir
n at
Ġseg on
tÃŃ cia
. -
ix a
Ġten ia
Ġv ic
v ent
Ġt ema
Ġcomp te
u ta
ir an
ĠJ un
Ġset embre
Ġc in
b res
Ġsab er
Ġvol un
Ġvi ol
Ġd om
Ġ #
ĠE x
i ment
tar Ãł
ci ona
Ġcorres pon
âĢ Ŀ
x es
is teix
ĠPu ig
O R
Ġi d
Ġmitj ans
Ġempres es
Ġj oc
Ã Ģ
Ġpass a
Ġf i
er e
Ġn ord
Ġn atur
ĠpÃº blica
ĠpolÃŃ tic
Ġser ia
f or
Ġme va
d er
oc tubre
re a
Ġpod em
Ġpl an
Ã§ os
Ġhist Ã²
Ġres ol
er ta
Ġtorn ar
un t
Ġdi v
Ġcomp le
Ġf ora
g Ã¨ncia
Ġhau ria
Ġc la
ĠQu an
Ġper d
b ol
Ġgrup s
Ġc irc
as si
rib u
Ã¨ ri
e quip
gu ts
ec n
ĠC UP
or ta
Ġcontra c
ti da
Ġpres enta
uli ol
Ġseg le
Ġrespec te
Ġins tal
em ents
ĠGir ona
Ġob res
Ġdon cs
ĠfamÃŃ lia
Ġac ord
ĠQu e
Ġsec tor
Ġfut ur
eri or
Ġs ob
Ġprobl ema
Ġcons titu
ing Ãº
m enta
e z
ÃŃt ol
al la
Ġaf ir
Ġad ministra
un itat
i re
Ġm emb
Ġma ig
ĠnÃº m
Ġcon ven
ĠE RC
Ġc ob
z e
Ġ eren
ÃŃn im
Ġmat eri
Ġdi pu
alitz ar
Ġn e
Ġc rec
Ġcamp anya
Ġp Ãłg
tar is
Ġv in
it er
Ġpod ria
Ġ Y
s up
ec a
emp resa
i Ã¨ncia
ĠâĢ ľ
Ġmo vi
g aciÃ³
Ġlli ber
Ġ @
Ġser vir
tu dis
anÃ§ ant
Ġpar l
Ġesta va
ĠR eg
Ġi gual
a ud
Ġdec lar
Ġno ves
Ġt ex
Ġm ÃŃnim
a par
Ġn it
O E
ven ciÃ³
Ġtra s
Ġcul tura
Ġg en
Ġjun y
Ġper i
m an
j at
Ġan ti
Ġespanyol a
Ġs a
Ġdes embre
ĠpolÃŃ tics
ÃŃ em
um nes
e ti
Ġmemb res
Ġcap ital
ec u
Ãł l
Ġcl ass
pos iciÃ³
ĠâĢ Ķ
Ġj uliol
Ġpartici par
Ġc li
Ġdem os
tÃł n
Ġsup er
Ġha gi
Ġnov embre
d ica
Ġsi mp
Ġsobre tot
Ġvis i
Ġc inc
Ġr Ãł
Ġde dic
ĠmÃºs ica
Ġoc up
Ġcos tat
g en
ci n
Ġmod el
Ġva m
Ġpre par
Ġla bor
Ġcre u
Ġv ist
ĠC o
2 00
Ãł m
g rat
ĠC iu
b an
tin a
si m
on ar
Ġtot hom
tr ar
Ġj u
Ġjo ves
Ġd ub
Ġme di
Ġs ap
ĠCi U
ĠNa cional
? ?
es siÃ³
Ġg estiÃ³
Ġj orn
Ġ ,
ĠV ic
ed ir
Ġpa per
Ġcomp l
A C
ad al
Ġpres ent
ĠC l
f ia
ist Ã¨ncia
ĠR ep
1 0
Ġm assa
A ss
ab te
end res
da vant
Ġalgun es
Ġp in
Ġparticip aciÃ³
tiva ment
el a
ĠS an
al tra
Ġmat ÃŃ
Ġno us
Ġv ul
Ġes de
ĠR a
er c
h ab
al cal
Ġpro per
b Ã©
tal l
ĠS anta
ĠG ran
Ġrec or
objec tiu
fic at
Ġc ara
Ġde termin
Ġsup os
Ġcas os
ĠPS C
mb it
Ġcomp rom
ul tura
Ġf ac
er ic
Ġa mp
Ġpa Ã¯sos
er ca
ĠS ol
Ġmar Ã§
Ġter ra
p ro
Ġr om
Ġpos i
n et
ĠH a
itz ar
Ġmunicip al
Ġtrob a
ist re
Ġn ingÃº
ĠgrÃł cies
un y
Ġpropos ta
Ġf Ãł
Ġt eu
Ġpots er
Ġacab ar
Ġcaus a
Ġsegu retat
Ġv ia
ĠR ec
v ors
duc ciÃ³
Ġloc al
Ġpla Ã§a
ĠCas tell
el i
Ġpres sup
Ġcom b
Ġt ren
Es panya
a j
Ġ2 1
Ġqu in
Ġpro u
Ġdar rer
w it
Ġid enti
Ġtel e
Ġc ert
d s
Ġaut or
Ġcandi dat
Ġter min
e fici
' s
Ġimp os
Ġha urÃł
g rÃ©s
Ġreg id
Ã¯ t
ter a
Ġv ot
c rip
l an
tan y
Ġes ti
ing Ã¼
e v
ac ciÃ³
Ġconsid era
Ġprobl emes
ĠB en
Ġcomunic aciÃ³
or ganitz
Ġtreball ar
en ya
ar ticle
mp oc
Ġper ÃŃ
c an
Ġex pres
Ġmol ta
Ġcastell Ãł
umen ge
Ġdefens a
ĠlÃŃn ia
Ġta s
Ġesta bl
ess in
Ġdesenvolup ament
Ġs elec
Ġprincip al
in depend
Ġsegu ir
ten ciÃ³
ai gua
ĠP od
o o
ĠS up
Ġtin gut
Ġcon Ã¨ixer
Ġmitj anÃ§ant
Ġtex t
Ġespeci al
Ġd ur
ap ro
d um
Ġnom bre
Ġcomen Ã§a
Ġex plica
ĠT arra
Ġs Ã©
ĠD on
ac ter
Ġdeb at
os os
Ġor ig
Ġgu erra
Ġes tr
hi b
ĠEuro pa
Ġpres id
ĠT er
Ġo f
ĠMar ia
l ÃŃc
u als
Ġcre ar
g ona
Ġf as
Ġconjun t
aques ts
trat Ã¨
ĠM os
it Ãłria
Ãº blica
Ġe vi
ĠC h
ab ril
Ġcon dicions
ĠD urant
Ġcam ÃŃ
Ġll u
Ġreb ut
Ġcr isi
Ġresul tats
Ġciutad ans
ra s
Ġtin c
Ġp le
Ġve Ã¯
gl Ã©s
in ar
cion ar
Ġin icia
x e
ĠLle ida
ten ir
Ġcons er
h er
Ġbas e
z a
' ,
d it
Ġf arÃł
Ġen ll
Ġlliber tat
Ã¨n dum
Ġdoc u
d en
Ġm ul
ĠL li
Ġs uc
R E
c ri
Ġdecid ir
Ġelec tor
ĠLle i
la cions
Ã§ at
Ġtreball adors
Ġ .
vi at
es tar
Ġj ut
Ġenti tats
Ġt ecn
Ġres id
rib un
ĠVi la
Ġprojec tes
ĠpolÃŃ tiques
Ġg aran
Ġalg Ãº
Ġcapa citat
Ã ĵ
p re
titu t
du ca
Ġdiss abte
Ġre gu
I N
pr en
bl ement
v aciÃ³
Ġsig ni
e ts
ĠAn t
wit ter
m s
g o
Ġl o
Ġan im
Ġs is
form aciÃ³
Ġf ons
ÃŃ fic
Ġac c
N o
Ġaj ud
Ġ tit
Ġs os
Ġm ob
Ġcom ar
Ġdi m
I S
Ġl ec
Ġesp ai
eb rer
pe a
ER C
gu en
og rÃł
Ġ /
Ġcent res
Ġan unci
ĠS egu
Ã¨ ria
ogra fia
Ġprofes sion
Ġ2 4
v ui
Ġan omen
Ġtal l
Ġvo tar
Ġv ig
ib li
Ġj udi
ĠM i
Ġespeci alment
Ġcre ix
Ġcons um
ta ri
Ġ2 2
Ġll ista
Ġtempor ada
ro p
ur t
Ġdiv endres
it es
Ġj ur
Ġf ar
ur an
ĠF er
ĠO r
Ġp an
du ir
ĠCatal ana
Ġac cep
Ġrefer Ã¨ndum
rim oni
al t
di al
Ġresul tat
ĠC entre
Ġal umnes
Ġen f
Ġ19 8
x it
Ġrecurs os
Ġcar acter
Ġvol en
Ã© u
1 2
Ġque da
ada ment
Ġp es
Ġcom erci
es tudi
ob ra
Ġdiss eny
Ġlloc s
Ġesp a
Ġlli ure
Ġha vien
pa i
s t
ĠeconÃ²m ica
Ġpro v
Ġcr ÃŃ
Ġrec la
ĠR o
f a
Ġm iss
Ġinterna cional
os es
Ġdi umenge
ĠA b
ĠTarra gona
O S
ÃŃs tiques
Ġ ord
Ġest em
Ġpu gui
es si
is cal
Ġide a
Ġcar re
Ġs um
Ġsol s
t Ã²ria
Ġus u
Ġrepres en
labor aciÃ³
g er
Ġob s
ĠBar Ã§a
any s
Ġf ebrer
Ġdirec ciÃ³
Ñı Ñ
Ġmos tra
Ġsor tir
id ar
Ġdes tin
gi es
Ġdeman ar
Ġproduc tes
Ġ5 0
r or
omp any
h t
Ġc ivil
Ġfe ts
Ġs ud
Ġcomp et
Ġre i
Ġdef in
Ġprim ers
Ġe di
Ġgaire bÃ©
ĠF in
Ġrela cion
i o
c e
Ã¼ es
m Ãł
Ã¨ri e
Ġm ir
Ġmes ures
Ġesp or
Ġespanyol s
Ġg aud
ĠPS OE
Ġperi od
Ġxar xa
Ã²n ica
ĠsegÃ¼ ent
jo us
Ġguany ar
ĠR am
um s
ab or
Ġmanten ir
Ġg erm
Ġpor tar
____ ____
Ġf re
ĠM us
li es
Ã¨ tica
ca p
ĠprÃ² pia
Ġque dar
Ġsem bl
Ġall Ã²
h ic
c he
an ia
Ġpod rÃł
Ġre bre
ministra ciÃ³
Ġa ug
!! !
a vi
di o
Ġmunici pi
si onal
ĩ Ð
ĠCa p
ĠperÃŃ ode
o cia
E C
Ġviu re
Ġmo tiu
Ġs im
Ġcon fi
Ġdin ers
p ort
ta gon
Ġindependentis ta
id e
Â ´
ĠpÃłg ina
Ġpres Ã¨ncia
Ġcre aciÃ³
Ġra c
Â Ń
p oca
h ttp
Ġprincip als
e tes
Ġe duca
Ġcons trucciÃ³
Ġres posta
Ġplant e
ĩÐ ª
ci o
Ġe diciÃ³
ÑıÑ ĩÐª
Ġaqu ell
ill uns
Ġta mpoc
qu ÃŃ
Ġver itat
duc aciÃ³
ÃŃs tic
en cia
Ġl os
Ġevi tar
qu it
Ġfal ta
Ġnatur al
um e
gu da
ĠprÃłc tica
ĠS ÃŃ
A D
Ġmo di
ÑıÑĩÐª ÑıÑĩÐª
Ġm ed
Ġcon tac
Ġdesc ob
Ġllu ita
Ġ \
Ġn ens
ĠP res
Ġs Ã¨rie
as i
Ġf es
Ġjorn ada
ĠPa ÃŃs
Ġim atge
Ġt ÃŃtol
Ġcon vocat
Ġ er
Ġ rob
a tal
Ġrec erca
Ġaqu ells
Ġf igu
tra c
Ġprofession als
Ġneg oci
Ġrealitz ar
ci pi
es truc
ĠT V
aques tes
Ġmovi ment
ĠE m
on ts
Ġpro tagon
P er
Ãł mbit
Ġrecon eix
ta des
5 0
Ġa hir
Ġp ort
Ġ1 00
Ġre m
Ġrepres enta
Ã³ c
Ġben efici
em ble
e qÃ¼
Ġactu al
ĠEn tre
Ġmer cat
Ã² l
glÃ©s ia
Ġm ot
b ert
1 8
eix i
en es
Ġob ra
Ġconc ep
Ġd ata
Ġsal ut
Ġdif ÃŃ
Ġmin uts
p en
Ġpara ules
ribun al
li da
Ġinc or
Ġ19 7
Ġfam ili
Ã³n a
b e
Ġ2 7
il ar
Ġ2 3
Ġexplic at
an ar
Ġcul tural
Ġcar Ãłc
ĠcarÃłc ter
r in
Ġdon at
Ġprom o
Ġi r
Ġd ol
ĠM o
Ġinc lou
r ont
Ġp al
Ġprem i
Ġfill s
Ġac ompany
1 4
Ġtind rÃł
plic aciÃ³
Ġh as
Ġg l
I ns
Ġtar da
Ġc ot
er g
Ġan at
ospi tal
at ura
ad o
esc ola
a tiva
Ġmet res
ac tivitat
ĠT e
ĠL A
Ġrefer Ã¨ncia
Ġf ona
ĠUn iÃ³
ibli ot
Ġdef ini
Ġlla vors
Ġabs ol
Ġcl ub
Ġtermin i
Ġpens ar
ĠpÃºblic s
Ġcons eqÃ¼
Ġdeci siÃ³
Ġre par
ĠDe partament
Ġh ora
O L
or ca
Ġg as
gu em
l oc
in al
A S
Ġd Ã³na
ĠAnt oni
tec ciÃ³
Ġdi jous
ab ilitat
Ġs us
Ġleg is
E uro
ĠA vui
ĠCar les
und aciÃ³
k i
ĠPer e
Ġp is
Ġexplic ar
ĠR es
g res
gu er
ol o
ĠGener al
Ġd illuns
es per
Ġfe ia
Ġin teg
Ġtar d
Ã³ r
tic ular
tin t
Ġelec tr
Ġvol em
ha ver
Ġcan Ã§
âĢĵ âĢĵ
ĠsegÃ¼ ents
Ġve hic
Ġ |
on dre
in at
ar en
l les
Ġbar ri
Ġfun ciona
A M
Ġv inc
om Ã©s
Ġofici al
Ġ ul
Ġpar e
Ġb Ãłs
ĠL e
ĠfÃł cil
ita ri
qu is
Ġmes ura
ĠSer ve
ha via
ĠA d
ob le
tru ir
os s
Ġquan ti
Ġmar e
Ġlli bres
teri ors
ĠÃ Ģ
in aciÃ³
ta va
ent ment
ĠP rim
ov int
enci al
Ġprofess or
aut or
Q U
Ġv ista
Ġ2 6
Ġpres entaciÃ³
ga ment
Ġ201 0
Ġap un
bli ques
Ã¨ l
Ġt rÃł
. "
Ġpressup ost
le gi
1 5
Ġr isc
al tre
alitz at
ci t
ĠJa ume
ĠP el
âĢ ¢
ula ciÃ³
ĠDon cs
Ġv ÃŃ
Ġpo gut
Ġhom e
Ġmal al
Ġtra di
Ġf esta
ĠnÃºm ero
ta cions
E M
ĠJos Ã©
Ġr Ã¨
Ġent rar
Ġcons ci
tit z
is teri
Ġcent ral
Ġform at
ĠEs p
oc s
ĠSoci al
Ġfut bol
l tima
che z
Ġel la
Ġesp er
Ġpol icia
d al
Ġsi guin
Ġser an
Ġrec om
ĠP rem
Ġvolun tat
tin gut
1 7
Ġl im
in ici
Ġlleg ir
Ġc ic
en da
gu Ã©
is ti
Ġre al
c ant
reta ri
Ġmar xa
Ġnecess itat
ĠEs c
ĠB o
O r
an i
Ġdiu en
ed uc
Ġhom es
ĠJ u
ĠM al
Ġrec ol
Ġjo ve
Ã²n ia
e ig
in cid
Ġun ivers
ĠS ab
egu t
Ġref lex
ĠR ac
u el
Ġtras ll
Ġe v
Ġpe tit
ĠH o
Ġex p
Ġan terior
u blic
i res
g im
Ġsegu r
qu el
Ġcomun itat
ĠEs tats
ĠLl u
Ġass eny
U n
Â» .
Ġra Ã³
ĠqÃ¼ estiÃ³
ador es
Ġser v
ĠM Ã©s
i or
ens a
m aciÃ³
Ġenll Ãł
Ġ2 8
O M
Ġac us
an til
tu al
oll ir
Ġproduc ciÃ³
ĠE L
k a
ĠF undaciÃ³
Ġas pec
quit ec
Ġsup erior
Ġv ari
Ġloc als
ĠCom issiÃ³
Ġcat eg
Ġvol tant
Ġre t
Ġb an
Ġimpor tants
Ġdifer ent
g el
Ġsin dic
E ls
Ġmus ic
ss a
Ġcanvi ar
Ġdi ari
ent rada
ga f
Ġprofes sional
er ts
Ãº n
Ġt emes
Ġte va
vi ar
si va
Ġdem ana
Ġse par
m o
tin g
ĠFran Ã§a
Ġpossi bilitat
ci e
Ġex ig
Ã² p
en ari
Ġpres Ã³
Ġconf lic
e uros
Ġmillor ar
Ġ201 1
Ġp ac
Ã© ixer
ec res
Ġfaci li
Ġcl ara
alcal de
Ġes tudis
Ġbaix a
mar ts
ĠG rÃł
Ñı Ñı
ĠA m
Ġd reta
Ġm ans
ĠCons titu
Ġen davant
Ġindependentis tes
Ġmunicip als
ĠM in
Ġc ient
Ġcatal an
on d
organitz aciÃ³
Ġrel ig
Ġprem sa
Ġimp uls
E L
Ãł leg
ĠDi rec
Ġe qui
Ġhab itu
' .
Ġdi marts
gl Ã¨s
p eu
Ġqu ina
Ġpro hib
Ġpu guin
Ġoc as
Ġproc ess
Ġmateri al
at en
Ġp il
ĠIn terna
esti val
Ġt oc
n ar
lÃŃc ula
ĠF a
Ã²n ic
Ġcontinu ar
Ġconc ent
ĠUn its
ag ost
ĠT erra
ĠdifÃŃ cil
Ġmill ors
Ġelector al
u ix
Ġpublic aciÃ³
Ġconf ir
t ri
Ġcomp eti
Ġha gut
Ġter c
lus iÃ³
Ġm Ã¨
Ġ4 0
Ġpar ticular
Ġm ena
Ġmal grat
Ġes tic
u mp
te gra
Ġden unci
.... ....
Ġex erci
Ġpar es
ĠvÃŃ de
Ġesde ven
Ġindi vid
Ġt he
n ov
Es c
ac cÃ©s
Ġes tratÃ¨
anÃ§a ment
r ÃŃ
os ta
Ġimp ort
ĠP at
Ġll um
ĠM ont
olÃ²g ica
ta forma
h ores
independ entis
es pai
Ġper dre
f il
Ġdesc on
ti es
Ġin ver
v ada
Ġre vol
al i
Ġmili tar
Ġfun ciÃ³
Ġpod eu
ric s
om Ãł
Ġinicia tiva
Ġex pos
Ġb la
or ig
o fer
Ġf ra
Ġcon n
I A
Ġp i
Ġarrib at
Ã į
Ġv ir
ĠA ss
ĠMos sos
re ga
Ġpos at
ĠCatal Ãł
ad Ã¨m
Ġdel ic
Ġvalenci Ãł
A c
ĠIn ter
ĠG ar
erat ura
da ment
Ġdisc urs
titu d
ĠValenci Ãł
is tir
fer Ã¨ncia
Ġs ovint
1 3
Ġfor ces
Ġl ingÃ¼
âĢ Ķ
ad ell
d ats
Ġclass e
as t
Ġp ed
r ats
ÃŃ fica
Ġconeix ement
ĠG ra
Ġpropos tes
Ġpos iciÃ³
on g
a ven
Ġb at
Ġpre u
t em
Ġ201 7
Ġtra m
Ġinstitu cions
ĠT ur
v os
U R
emble a
l ara
Ġmateix os
Ġ *
Ġfin alment
Ġl it
e us
d ors
Ġper fec
ĠV il
ust ri
Ġa viat
ĠRe i
alitat s
Ġco ordin
enti tat
ar rib
in dic
Ġv ÃŃc
g ent
si ble
ĠprÃ² xim
ĠfamÃŃ lies
Ġb i
ca ment
ĠeconÃ²m ic
Ġ201 2
Ġobjec tiu
ĠveÃ¯ ns
Ġpr endre
1 6
Â» ,
ĠÃºltim s
Ġfun cion
ou re
agra da
Ġex pl
i em
ĠC er
Ġpro va
educ aciÃ³
Ins titut
Ġcad asc
a mp
ĠFran c
Ġcon v
Ġpre ocup
ĠM or
Ã± a
es tÃł
Ġdis p
Ġviol Ã¨ncia
i Ãł
in iÃ³
Ã§ ada
ens e
A d
olÃ²g ic
Ġb and
Ġb ri
ĠS ec
es querra
en tal
Ġrespons able
Ġav an
ed eraciÃ³
Ġse gui
gi tal
om es
Ġfran c
ĠCatal ans
er al
ĠG rup
Ġcon te
Ġf iscal
Ġactu alment
ĠIn s
op ort
li ment
ĠL u
Ġcatal anes
r ent
ex pres
es tiu
Ġprin cipi
in f
Ġel ements
em anya
Ġjus ti
Ġdim ecres
ed at
Ġper ill
Ġp s
dem ont
gu any
ĠM arc
Ġ19 3
ĠI s
Ġreun iÃ³
CI Ãĵ
is mes
Ġs Ã³c
Ġaut on
Ġm em
Ġqu ad
Euro pa
Ġpa gar
tor a
Ġh or
r ant
Ġcla u
I T
Ġv ull
Ġar gu
tis ta
Ġusu aris
t witter
O C
Ġactiv itat
e j
ess a
actu al
Ġcomp ta
l le
Ġconsell er
Ġpl anta
Ġac tes
ĠD Ã©u
ĠD el
qu ia
Ġop ort
Ġconver tir
gun s
d rÃł
ĠB a
Ġz ones
ĠMun ici
Ġex isteix
on at
p s
Ġpre fer
ĠÃº nica
Ġconc urs
i ble
Ġlabor al
Ġ200 9
ĠDi pu
Ġpl ena
Ġter cer
ĠlÃŃ der
Ġvis ita
al u
Ġsigni fica
Ġt end
Ġsor tida
b i
qu et
Ġg Ã¨n
da c
ĠrÃ¨ gim
Ġm embre
ĠR i
Ġex tra
Ġ ec
Ġconegu t
Ġta ula
esp ec
gu lar
a cab
ĠCon grÃ©s
Ġpregun ta
Ġcor rec
Ġj ust
Ġre iv
ĠCiu tad
Ġpos a
Ġes truc
Ġ2 9
ĠB ale
ic aciÃ³
Ġpoc s
ĠRep Ãºblica
Ġimp res
ĠS a
Ġpod ran
Ġf ron
Ġequip s
Ġpos terior
Ġarrib a
Ġmom ents
uÃ¯ t
Ġeuro pe
lici tu
Ġf ÃŃs
x i
Ġm Ã²
Ġform ar
u en
Ġd ura
Ġdel eg
m it
Ã¡n chez
k e
c el
tan ya
Ġob ert
Ġsob iran
en at
Ġcompany ia
Ġespa is
Ġar t
ĠEuro pea
Ġpre veu
Ġsenti r
2 4
Ġcl assi
ver si
Ġal i
pr endre
---------------- ----------------
vir us
ĠT re
Ġp ec
ĠI I
ĠX avi
Ġpres entat
Ġescri t
Ġcol or
ble ix
Ġnec essi
Ġac te
ĠP or
â Ĥ
2 5
on or
ran s
âĤ ¬
Ġcontin guts
!! !!
Ġs o
Ġ19 6
Ġde r
met re
tis tes
Ġdar rers
os iciÃ³
ĠAc tu
eg a
Ġver siÃ³
Ġconsul ta
Ġg esti
ĠN omÃ©s
v ist
op ar
ĠS Ã¡nchez
Ġn uc
Ġin dic
Ġcos t
ĠC ent
Ġint el
Ġporta veu
es es
Ġmat Ã¨ria
Ġall Ãł
Ġex cep
ona virus
Ġnecess itats
ĠF ins
ĠT ots
ĠB er
Ãº nic
ĠPuig demont
Ġb al
ĠMi quel
Ġpro por
Ġamp li
Ġri u
ĠC ultura
ĠMon ts
Ġ200 8
Ġjug ar
ques ta
Ġam ics
t on
Ġt ens
til la
Ġdec lara
Ġse x
b ia
voc ar
Ġc ur
Ġpol ici
ĠLlu ÃŃs
b o
Ġfin als
tat ge
ĠpÃº bliques
Ġincor por
Ġf ix
ĠqÃ¼ esti
Ġciu tats
Ġdirec tament
I B
ra des
tir ar
ĠQu Ã¨
Ġa gaf
Ġestudi ants
Ġsetm anes
all es
os c
plic ar
Ġcar rers
entat ge
Ġmitj Ãł
Ġgaud ir
Ġpr en
ĠC ivil
Ġper m
Ġf u
bil itats
Ġ Â·
Ġdar rera
fic ul
Ġpod ia
p id
ĠV ol
en ar
Ġp ub
I L
Ġobs tant
Ġedi fici
Ġceleb rar
Ġx if
m on
Ġac cions
ĠP ed
f ÃŃ
b ar
Ġemp resa
t ria
ro c
vis tes
ĠV er
Ġdub te
ĠP i
Ġg rat
ĠSal ut
Ġp ic
EN T
tan a
lec tiu
ĠEn s
ĠP re
ĠT ribunal
Ġass ol
Ã¨ rica
Ġobjec tius
Ġde ri
Ġp uc
Ġdes car
ĠS e
Ġm it
at es
Ġmill ora
independentis me
v em
Ġg reu
ĠP en
qu in
Ġv uit
men tal
Ã¨r cit
Ġ201 8
Ġqu ar
Ġf l
Ġrel acions
ocia cions
al ta
it x
aten ciÃ³
ĠB or
Ġg ir
ĠE S
ti on
men ys
ĠPa Ã¯sos
crip ciÃ³
ĠInterna cional
ni ques
Ġdocu ment
Ġur b
Ġex tre
ĠGu erra
ĠL la
c ara
Ġrel le
Ġcan vis
Ġal terna
era ment
Ġf oc
Ġdefens ar
ĠAn d
Ġtrac tament
er Ã§
Ġpob les
et re
Ġpeti ta
Ġespec tac
Ã ĥ
da p
Ġmiss atge
Ġf onts
Ġdi ficul
ĠN O
Ġtrob ada
Ġconc ert
Ġcomar ca
ĠMunici p
Ġescri ure
Ġpar ts
A A
Ġsubs titu
Ġf ru
Ġciutad ania
Ġsi gut
ĠFranc esc
Ġcons truir
edi fici
ol es
ul at
Ġre alment
ĠPer quÃ¨
us iÃ³
Ġsegu eix
ac tiv
Ġproc edi
Ġconvocat Ã²ria
Ġmar x
ex per
E x
Ġcom Ãº
tur als
Ġ201 5
Ġl id
itat ge
Ġpro tes
Ġmitj ana
Ġag ents
Ġi s
Ġexpres s
Ass ociaciÃ³
Ġprincip is
Ġsec retari
Ġca b
Ġmor ir
Ġco incid
Ġno ta
men tat
Ġe ix
aqu ÃŃ
Ġgl ob
an ti
Ġcon dem
Ġdeix a
p es
n ics
ĠdemocrÃł cia
Ġque dat
Ġimport Ãłncia
Ġcos ta
Ġpara ula
ran ts
ht m
tÃŃ cies
ĠM all
Ġa ta
ĠM ed
an g
Ġfun d
Ġob tenir
ĠX X
Ġque d
Ġab and
Ġdifer Ã¨ncia
v all
ca pa
Ġmanifes taciÃ³
ĠS Ã³n
actu alitat
Ġun i
Ġd Ã¨c
Ġval ors
Ġassegu rat
Ġcont emp
Ġmunicip is
Ġsal a
Ġpa is
ica ment
Ġnom b
Ġb e
ĠEs tat
Ġob rir
ĠH e
U N
tÃł ria
Ġres er
orig en
es tr
Ġg e
i cions
ri t
Ã² ries
Ġ201 6
op a
Ġtotal ment
Ġofer eix
ist ents
Ġent endre
Ġpre vist
Ġjun tament
ĠR os
Ġ200 7
Ġnov el
Ġnecess ari
ar em
Ġaconsegu it
f e
Ġcontac te
ĠAques ts
Ġjur ÃŃ
Ġun itat
ĠB aix
Ġfranc Ã¨s
re ix
Ġ201 3
Ġprimer es
Ġ19 4
Ġtreball s
enya ment
Ġdeix at
tic les
ĠPar tit
Ġquanti tat
Ġsegu it
an im
ra ment
era cions
Ġactu acions
Ãł ss
Ġent orn
Ġpa ci
Ġcontinu a
Ġpeti ts
Ġpl at
Ġla s
ĠCom p
Ġpro tecciÃ³
Ġaqu ella
d ria
z ar
Ġprogra mes
Ġal hora
f on
Ġev ident
ĠD av
Ġtrob en
Ġimm ig
ĠF ac
Ġll uny
re us
alitz ada
Ġasseny al
Ġvol s
Ġjudi ci
Ġes te
Ãłl isi
re gut
ĠMus eu
gi da
ĠNo va
Ġrepresen tants
Ġa de
Ġim atges
Ġtrasll ad
m entar
Ġdoc um
Ġs ur
ori al
Ġint ro
Ġrecord ar
Ġtas ca
x t
ibliot eca
ot es
ĠD ec
A P
Ġha guÃ©s
Ġjug adors
n ia
2 2
ĠF or
Ġtit ular
Ġ gui
Ġseny or
ha u
Ġre tor
Ġa dap
Ġenc ar
Ġinc l
Ġutilitz ar
Ġacab at
u f
ĠT en
Ġb omb
ĠA C
Ġm asc
am eric
r us
c le
ja ment
Ġesp Ã¨
ĠPal au
Ġfun cions
I V
Ġsen z
f ons
olo gies
econ omia
Ãłr dia
ĠP l
al es
Ġsup osa
Ġresol uciÃ³
un es
ĠBale ars
Ġrepres entaciÃ³
Ġno tÃŃcies
Ġpre t
Ġtre ure
Ġes tim
Ġdipu tats
idar itat
ĠC D
fi ques
Ġ6 0
ĠT he
Ġtrob at
Ġqual i
ĠD ia
Ġfran ces
ĠPod em
Ġ201 4
Ġel abor
Ġterc era
Ġpos t
19 9
Ġinten tar
Ġajud ar
ĠRam on
Ġm is
ĠT ra
ol ÃŃ
Ġur ban
Ġme itat
a bles
Ãº ltim
Ġefec tes
ĠgÃ¨n ere
Ġcon vid
ien tal
Ġs ot
Ġob ser
ori es
Ġaspec tes
Ġf ort
g les
Ġimp l
Ġre du
Ġcom enta
rib uciÃ³
lla Ã§
Ġcomprom ÃŃs
Ġdes apar
de z
ent en
Ġes s
op eraciÃ³
Ġselec ciÃ³
Ġtele visiÃ³
ven cions
Ġmar ca
Ġmen jar
Ġ( "
it en
or tar
pi es
ĠP au
ĠM ari
Ġbus car
Ġs ort
ĠR od
ran g
tim es
Ġtor na
ur g
u a
cis ament
ĠValenci ana
g Ã¼es
htm l
Ġp leg
l ement
ĠP ots
v el
E I
Ġind ustri
Ġm ec
Ġde ia
du ra
ĠL i
Ġrac ona
Ġte atre
ĠC at
Ġrespons abilitat
re di
Ġhum ans
Ġ3 1
Ġade qu
Ġvic tÃ²ria
qu il
Ġafeg it
Ġtrans port
Ġinf lu
ecu tiu
Ã¨ tic
li citat
ĠCl ub
ĠF ern
Ġsol u
Ġmin istre
i va
Ġdem anda
Ã² leg
Ġcontin gut
ci na
Ġdisp oni
E U
Ġrep e
Ġpro teg
ĠE mp
er tes
h es
Ġar reu
Ġrep ublic
jo y
gin y
ÃŃ m
2 3
Ġassegu ra
) :
Ġar ticle
Ġcateg oria
in form
hom e
Ġcin ema
A B
v ador
Ġcons ol
itz at
Ġhi p
ĠCom un
Ġtin gui
av ui
Ġs essiÃ³
Ġexper iÃ¨ncia
Ġcontr ari
ĠMall orca
ari en
ĠPrem i
jec te
Ġconsid er
ĠvÃŃde o
ĠFin alment
Ġtre b
Ġxar xes
ĠC ul
om s
Ġpro ves
Ġmob il
Ġcol l
ĠD em
Ġbo ti
Ġe ts
m i
Ġmer c
k s
Ġinf antil
Ġp itj
T S
Ġproc ed
Ġfunciona ment
Ġass um
Ġgu ard
Ã² c
m ig
el e
Ġpat rimoni
Ãłn im
ĠU E
qu ad
Ġcreix ement
Ãłn ia
estruc tura
Ġv esp
Ġpri or
Ġper c
ribu ir
un cia
Ġdi gital
actu aciÃ³
ab s
Ġf rac
Ġvi atge
Ġfas e
I M
Ġvol ia
Ġcomen Ã§
Ġn aciÃ³
Ġfin anÃ§ament
S i
o ti
Ġres s
ĠI lles
mb ra
R A
ĠT an
Ġparticip ants
all ar
Ġ www
Ġimp lic
ar r
Ġrec ep
ĠN ord
Ġre gi
Ġcon tes
Ġgra u
Ġinteress os
ocup aciÃ³
ĠÃ¨ xit
Esc ola
Ġsol uciÃ³
Ġvi at
ĠR ib
Ġen g
ac h
umen tal
r ÃŃc
Ġapar eix
ÃŃs sim
Ġqu il
Ġrecup erar
om pl
p ic
gi ques
Ġin fer
Ġdesenvolup ar
D D
Ġcer ta
Ġdirec te
ter s
ita ciÃ³
Ġcon vi
Ġper o
Ġpublic at
Ġagra da
t ric
Ãº nica
Ġem o
Ġin au
Ġes for
Ġac os
aix Ã²
b uix
a plicaciÃ³
Ġcomp rar
Ġdeman at
or ar
ca mp
ogra fi
Ġexc lus
Ġacc edir
Ġ Ãºs
o x
Ġp acte
ur al
ĠJu an
Ġ q
Ġpermet re
ĠV an
Ġten ien
u ari
Ġfigu ra
ist Ã²ria
e qu
Ġre forma
Ġinau gu
Ġve ig
Ġescol es
ep res
Ġconc re
Ġcor reu
Ġofer ir
Ġclass es
ĠDav id
ĠN adal
ĠU r
Ġindepend ent
Ġder ro
Ġinvesti g
ĠAl bert
Ġsent Ã¨ncia
Ġcomp tes
Ġpr Ã¨
Ġf ront
ĠP as
Ġdon en
Ġno tÃŃcia
ĠDipu taciÃ³
Ġ8 0
4 0
2 1
Ġbl oc
Ġesta ven
Ġmem Ã²ria
Ġcot xe
o di
obre gat
P S
Ġll ic
Ġl iter
Ġapro fi
emÃł tica
Ġpr on
Ġdeclara cions
e tats
v o
ĠRa joy
oc al
v ats
Ġprov ÃŃn
r arÃł
ĠP opular
id ors
Ġi ma
Ġg ol
ot el
Ġcaracter ÃŃstiques
ĠU N
ï ¿
in o
ĠAques tes
Ġcompany s
ĠMar t
fici ent
ĠJ us
Ġsa tis
c ada
ï¿ ½
C om
ed it
8 0
Ġgaran tir
Ġnomb ros
ĠEn cara
ĠG o
Ġllen gÃ¼es
Ġma g
ĠA ut
ĠTre ball
Ġconflic te
ig a
Ġdes ig
Ġn av
ĠO b
ĠU s
ĠN i
Ġform es
Ġf us
Ġsist emes
ĠX V
Ġal em
ĠE N
Ġfot o
ĠXavi er
Ġcar rera
j ol
i gua
Ġfin anc
Ġide es
ul ta
ĠG al
er na
ur ar
Ġsitu at
ĠmÃ² bil
Ġim me
ĠServe i
us a
ogrÃł fic
Ġ200 6
Ġdeclar aciÃ³
j ada
ad ministraciÃ³
Ġinform a
Ġprem is
Ġdecid it
Ġafir ma
ĠM at
eri es
Ġpa u
re d
Ġav anÃ§
Ġme us
ĠtÃ¨c nica
A ra
Ġde partament
ic h
Ġconte xt
Ġreconeix ement
Ġrecor da
Ġsig nat
E ducaciÃ³
l en
ĠMunicip al
Ġdesp la
2 6
ĠR om
Ġtreb alla
gu eu
fica cions
i Ã¨ncies
Ġpre c
Ġmusic al
Ġsec tors
esp anyol
Ġm ad
Ġinvesti gaciÃ³
ĠtÃ¨c nic
si u
Ġacab a
g ress
Ġ +
Ġs il
Ġan d
el ici
la m
Ġ ...
ĠB l
od es
gu essin
ĠLl obregat
arcel on
Ġfamili ar
Ġtre t
no ti
Ġsos ten
ca tal
ĠO l
j ud
Ġdi Ãłleg
Ġmo tius
Ġdesta car
p ir
ĠM er
ĠEsp anyol
Ġcr isti
Ġmos trar
er rat
ĠC ada
Ġdipu tat
Ġre dac
Ġpublic ar
inter Ã¨s
Ġceleb ra
v Ã¨ncia
Ġal cal
Ġf eix
Ġf ab
Ġcomp lex
Ġde tal
Ġf om
ec uciÃ³
Ġar ticles
Ġdesta cat
esc rip
I D
ĠCas a
ĠP os
ri Ãł
Ġm as
Ġman ca
u des
Ġproduc te
Ġneg a
ord re
Ġrec ull
Ġnorm al
an ces
Ġmen or
i tants
enci ar
ĠP R
Ġcon ta
eix in
re es
Ġan glÃ¨s
Ã²m ic
ĠâĢ ĺ
" )
in vesti
Ġinten ciÃ³
ica cions
Ġinteress ant
Ġpor tes
Ġcom issiÃ³
Ġvos altres
Ġv el
Ġde pend
Ġn eu
' t
Ġcl Ãłss
Ġsab em
ex c
Ġregid or
re z
ĠI mp
Ġvol gut
Ġcomen Ã§at
Ġdis pu
Ġal t
Ġperd ut
Ġd o
Ġ )
Ġg ens
g ica
A gÃ¨ncia
Ġinter venciÃ³
Ã³r rer
Ġcorrespon ent
am or
Ġs ou
ĠMun dial
Ġcons ta
Ġcar ta
eix o
ĠP e
Ġperson atges
Ġcon duc
Ġmal a
mat eix
Ġps ic
Ġinter pre
c ul
Ġbl anc
Ġdocum entaciÃ³
Ġmun dial
II I
Ġs ac
Ġg anes
and o
Ġmir ar
Ġdesta ca
ĠlÃŃn ies
ia s
Ġad op
ĠP ER
Ġcon vers
itz a
Ġal ta
Ġvol er
ĠCom unitat
Ġpar lament
p o
Ġprodu ir
Ġmor ts
h or
Ġcre a
gu is
Ġcu ri
oo k
Ġqu ant
ĠVall Ã¨s
Ġcic le
Ġcom entaris
Ġconcep te
Ãºs tria
ĠB e
Ġdi buix
Ġh eu
at ori
ĠB Ã©
ĠR Ãł
Ġi tal
Ã¡ s
il s
it ud
Ġtradi cional
Ġd am
Ġa ma
ĠH em
Ġnom s
Ġdispos iciÃ³
Ġjus tÃŃcia
Ġper me
ent orn
v ades
Ġre vista
Ġmateri als
s in
Ġe ta
er tura
ÑıÑĩÐªÑıÑĩÐª ÑıÑĩÐªÑıÑĩÐª
c or
Ġreg iÃ³
ter is
Ġre quer
Ġter res
Ġper tany
2 7
Ġinc re
ĠM erc
ion at
que ts
tis me
ĠP D
Ġtrob em
Ġref or
t el
Ġma j
Ġ19 5
Ġter ror
2 9
Ġcomp ro
Ġin cid
b it
or is
e f
Ġin nov
ĠMol t
Ġorig inal
Ġdi ent
Ġfe ta
Ġpartici pa
Ġceleb raciÃ³
Ġobli gat
Es querra
ĠmÃłxim a
ĠIn depend
I U
Ġpossi bles
Ġper man
Ġcul turals
Ã¨ poca
Ġdocu ments
av or
ost os
Ġcomp tar
Ġpor tal
Ġd oble
ĠJun ta
Ġt esti
Ġac adÃ¨m
ĠhistÃ² rica
quer res
I R
2 8
ĠN ou
Ġv esti
via ment
Ġdem Ãł
ĠF ont
ex posiciÃ³
Ġpla taforma
0 3
Ġo per
ÃŃs tics
ĠâĢ ¢
Ġvehic les
Ġfes tes
Ġel Ã¨c
ĠSab adell
Ġten int
tr en
in formaciÃ³
Ġde tec
al um
Ġcon form
Ġtan car
Ġinterna cionals
ĠN e
cion at
ga cions
ĠGrÃł cies
fici al
ĠRe us
Ãłn ica
Ġlec tura
Ġin tegra
Ġempres ari
Ġan teriors
O O
Ġinc lo
Ġan tic
Ġnorm ativa
Ã¨r du
Ġhau rien
ĠPots er
Ġpromo ciÃ³
Ġpass ada
% .
Ġp ena
Ġcer ti
ĠB on
r eny
E P
Ġvisi tar
ist ori
ografi es
Ġg al
ĠO c
Ġtreball ant
Ãł rea
ĠPol ÃŃ
Ġg os
Ġpu blica
Ġal menys
en Ã§
arc al
Ã§ al
Ġvis iÃ³
) ;
Ġcomunic at
Ġestabl ir
ĠMan uel
ic ar
Ã¨ x
Ġpass ant
ĠF orm
ĠconseqÃ¼ Ã¨ncia
ĠM en
t ro
ĠP arc
Ġbl an
u gi
any es
m ad
Ġten iu
Ġren ov
d el
u gu
Ġcandidat ura
Ġll ui
Ġgener als
Ġcontrac te
Ġtra diciÃ³
ri ol
Ġfin alitat
atal la
ex erci
ĠM edi
Ġcirc ums
ĠSal a
Ġre tall
Ġrecor regut
Ġaqu elles
Ġrespons ables
Ġul ls
Ġg ar
m er
Ġen d
Ġ QU
e fec
ĠTe atre
Ġb ons
emp res
Ġesta bleix
Ġapro f
c en
Ġs urt
Ġplant es
n ex
ul ada
Ġinici ar
Ġnecessi ta
Ãº ltima
Ġband era
Ġfran qu
6 0
ona ment
Ġnecess Ãłria
Ġmil ers
Ġdefini tiva
in d
Ġpod rien
or k
ĠN av
Ġparl ant
Ġal es
Ġllar ga
E T
ĠÂ ¿
k o
E G
Ġop ciÃ³
Ġven da
Ġgu st
en Ã§a
es sions
Ġk m
Ġcor onavirus
Ġ7 0
ĠÃ¨ poca
ĠConstitu ciÃ³
ul tat
Ġcarre tera
Ġcompar tir
quad ra
Ġcurs os
ĠG e
Ġrep ro
on omia
Ġb ones
udi o
til s
i ments
Ġel im
licitu d
Ġad re
Ġad qui
Ġter mes
v ells
pe z
Ġp eu
Ġpitj or
es glÃ©sia
Ã¨ dia
ĠP ress
an isme
Ġp et
Ã¨ ries
Ġa vis
ter es
Ġcomar ques
ĠJ es
Ġconc ret
ĠprÃłc tiques
ĠF ederaciÃ³
Ġhabitu al
qu em
ara g
Ġa tur
ĠEs pa
Ġcient ÃŃfic
is sions
ot o
Ġperiod ista
Ġescri p
ĠRac Ã³
Ã īs
si ques
Ġmal ament
ic o
i tar
Ġper que
Ġapro vat
Ġbas es
es tre
Ġva ga
I X
Ġdam unt
teix en
Ġmun tanya
u ri
Ġcri tic
on ia
Ġpar ella
E mp
ĠvÃŃc times
Ġcli ents
Ġamb ient
Ġf aran
ĠS et
Ġsor ti
er os
4 5
ent es
ĠReg ne
ĠDE L
ĠRei al
ĠF l
Ġc ant
ĠB i
Ġp rac
Ġf ont
ro t
Ġ ----------------
Ġseu es
e jar
Ãł tica
Ġpre cisament
Ġaut Ã²n
Ġa juntament
cid ental
Ġconfi anÃ§a
w e
ĠhistÃ² ric
a a
Ġprocess os
fÃŃ cie
g Ã³
âĢĿ .
Ġpret Ã©n
d aria
Ã¯ da
Ġsec ciÃ³
a juntament
Ġconven i
Ġdemos tra
z i
Ġp Ã¨rdu
Ġno ti
ra b
Ġpa gament
Ġ201 9
ĠGu Ãłrdia
Ġca ure
Ġlit eratura
Ġpropi etat
ĠrÃł pi
Ġorganitz at
Ġvi v
Ġ ordin
it o
ĠMin isteri
Ġjut ge
ĠR ob
Ġreg is
Ġ ub
Ġvalenci ans
Ġsocial istes
ĠCon c
m os
Ġdispos a
ĠA s
Ġcomp or
Ġquan ts
Ġpopular s
ĠC ab
ĠMart ÃŃn
v as
Ġconsid erar
Ġ9 0
que ta
Ġpregun tes
________ ________
Ġv ide
ĠCul tural
Ġsor g
op era
lar s
tor is
ĠtÃ¨c niques
Ġto ca
tÃłn cia
ĠmÃ¨ t
Ġsup erar
m its
Ġfacili tar
Ġprop is
Ġd ra
Ġprocedi ment
Ġcons tr
Ġsimp lement
Ġf als
tÃłn cies
Ġass oci
or g
tÃł lia
ig Ã¼es
adal ona
u x
Ġvesp re
Ġaj uda
d ad
ĠcanÃ§ ons
ti p
Ġcomerci al
Ġconn ec
Ġentre vista
Ġb anc
Ġdon ant
c l
end es
ĠAr ticle
ĠT o
Ġima gin
Ġorganitz acions
Ã²n im
Ġpla ces
Ãłs tic
Ġcontinu aciÃ³
vis i
ĠMal grat
ĠF il
Ġent en
C C
Ġx i
Ġll o
Ġen viar
Ġf eu
Ġform en
Ġno ve
U r
Ġsocial ista
Ġcomp ra
ĠQu i
ron tar
ĠA quÃŃ
Ġin de
ĠPar ÃŃs
ĠPla Ã§a
ĠEs tÃł
Ġha uran
Ġleg al
Ġmant Ã©
op osiciÃ³
ud it
ĠMar tÃŃ
Ġob erta
la u
Ġa tor
Ġp on
Ġfre qÃ¼
a y
in terior
Ġc ens
esp era
Ġqu asi
L es
Ġdi ver
s ia
Ġvic epres
Ġmi ra
Ġha gin
ĠI N
Ġtran quil
Ġa plica
Ġmalal tia
Ġfot os
quer as
ĠCiu tat
ad i
Ġver m
Ġcre at
ĠS u
ivers ari
Ġtrac tar
pe di
rer e
en f
0 8
it Ã¨
% ,
oll it
Ġma gn
ti ble
Ġrealitz at
Ã¨ cia
Ġv int
Ã³ pez
. [
tat ges
bl o
Ġsatis f
Ġjug ador
ri u
Ġ >
J o
Ġam ena
ĠS I
Ġapro xim
B arcelona
r ist
in y
mb its
c ut
Ġfem en
Ġhab itants
3 5
Ġfona mental
cid ent
Ġbas tant
Ġpo ca
p ora
Ġdeci sions
ĠM ag
Ġb ru
ran i
o od
Ã² giques
ĠcanÃ§ Ã³
Ġv ers
Ġesti gui
Ġd Ã¨
Ġven ir
h as
ĠC A
Ġcar tell
Ġresol dre
r el
h em
. ,
pr om
Ġanim als
igu al
j ant
ist ent
Ġfer ro
Ġ ÃŃn
Ġfil la
j udi
Ġde p
Ġv aren
Ġv ota
ÃŃs si
Ġtecn ologia
Ã Ī
Ġjudi cial
ĠS ud
Ġcul pa
Ġvi la
Ġpan tal
Ġvos tra
tad or
Ġmod ern
Ġap orta
Ġestudi ar
rup ciÃ³
gu era
ĠL Ã³pez
p h
Ġlli ga
Ġam ic
Ġcompet Ã¨ncies
ĠEs querra
n is
Ġc rim
... )
et res
Ġpat r
ĠMan resa
Ġresp on
Ġnorm es
ĠActu alment
e qui
U A
ĠPed ro
Ġcri da
ogrÃł fica
Ġor gan
Ġapro var
alitz a
Ġcon ten
Ġcu ina
p at
Ġad ver
Ġ3 5
Ġped ra
Ġre duir
Ġorganitz aciÃ³
O T
ĠprovÃŃn cia
al iciÃ³
m or
O P
Ġgrat uÃ¯
Ad ministraciÃ³
Ġb ra
Ġ200 5
Ġm ic
Ġcomenta ri
Ã²r um
ĠCiutad ans
Ġcop s
os ament
ci pl
Ġlle is
Ġperson als
can ces
es pe
Ġdes tac
Ġf ed
ag rup
Ġes tats
Ġd a
- ,
Ġter ri
ĠPu jol
Ġcapa Ã§
l er
ĠqÃ¼esti ons
Ġtall ers
li ber
Ġcomp os
Estat ut
ent e
Ġadministra cions
Ġpar c
Ġins tru
ĠRÃł dio
Ġf en
Ãłm ica
f ran
' "
Ġma pa
Ġpens a
Ġn Ã©ixer
Ġun iversitat
Ġfamili ars
Ġcompl ir
Ġelectr Ã²nic
Ġtur isme
Ġextra ordin
Ġdarrer e
E D
is tit
ĠF C
ÃŃt ols
Ġpossi bilitats
Ġesp era
Ġcr Ã¨
Ġmovi ments
ĠL L
olÃ²g ics
en e
gra f
ĠDirec ciÃ³
ĠB adalona
ex tre
C at
Ġr us
3 3
es tan
ob li
Ġsitu acions
Ġra dic
E bre
Ġ200 4
Ġbl og
Ġri t
j os
Ġdoc tor
m ol
m em
ĠLli ga
iÃ³ s
Ġvol ta
tin s
on ats
Ġdescob rir
Ġtrans form
Ġafeg ir
Ġpre ten
b al
0 7
Ġr uta
Ġactu als
edi ciÃ³
Ġni vells
ĠÃł mbits
Ġtel Ã¨
Ġrecord at
Ġc rid
la b
Ġperson atge
Ġqu art
ili b
Ġpres siÃ³
ĠM e
Ġpec es
Ġfab ric
Ġref ugi
Ġassegu rar
Ġden om
Ġtin guin
Ġaut ors
Ġquil Ã²m
Ġcomun itats
Ġorig in
Ġp end
ĠP ort
li quen
Ġcons tant
fic ats
g ada
Ġcomp lic
Ġdi vid
ul ts
ĠTer ritori
res siÃ³
Ã¡n dez
m ac
Ġmen ors
Ġresul ta
Ãºn cia
ano va
Ġar ran
t h
Ġanomen at
Ġanunci at
0 9
Ġvos tre
ĠÃº nic
Ġmanten iment
Ã¨ xit
Ãł tic
si gn
h um
Ġpre us
Ġjoc s
Ġv aria
Ġescol ar
ĠAl s
Ġcas es
por ts
om i
Ġb is
on ada
ri ure
ix es
Ġmanifes t
an Ã§ar
Ġfa Ã§
Ġ os
ĠF estival
ĠMa jor
Ġper fil
la cant
z z
ĠcrÃŃ tica
eb ook
Ġf estival
Ġan ava
ĠdemocrÃł tica
Ġf elici
h n
Ġre ac
Ġve us
Ġ --
en ca
ĠcÃłrrec s
Ġca vall
A m
Ġsec und
Ġglob al
Ġne te
Ã²m ica
x iu
pren entatge
ĠL o
Ġtas ques
Es quadra
enci als
Ġafir mat
Ġan em
Ġr u
ric te
Ġmit ja
Ãł b
hau ria
A V
un da
ess or
Ġales hores
ĠPres ident
Ġconegu da
Ġa pos
Ġcri teris
por ta
on e
Ã Ĵ
Ġrecup era
ĠI C
ta s
ÃŃ cia
Ġsen si
Ġent ren
ran a
Ġe vol
ĠAl emanya
ĠD oc
Ġf ir
o est
ns it
d ers
gu ll
ĠSegu retat
TA L
vent ut
Ãº ria
il at
Ġvos tres
form es
Ġvel oci
lec ciÃ³
ĠS obre
Ġespanyol es
Ġcom erÃ§
ĠM il
Ġque den
Ġpre vi
Ġreiv indic
0 5
Ġe dit
Ġproc la
Ġdispos i
Ġm ur
ĠCastell Ã³
Ġre quis
Ġc ita
ĠA L
Ġmateix es
Ġ Ã²r
Ġel eg
Ġtra ves
Ġprofess ors
Ġprincip alment
ĠMonts errat
h ar
ans a
Ġb osc
dor ra
c u
Ġconeix ements
Ġsoci s
o fici
ĠB as
ĠS ub
Ġac ciÃ³
activ itats
Ġtorn at
Ġman tin
ĠO n
Ġv as
Ġparticip at
ospi ta
en car
ĠlingÃ¼ ÃŃstica
r Ã²
Ġop cions
Ġpa tir
w s
ĠD om
Ġpro vin
Ġm Ãº
ĠP rin
Ġdesc omp
itat ges
id or
Ġc Ãłn
Ġsol a
Ġem b
Ġviu en
Ġf itx
Ġaconsegu eix
Ã²s it
it or
Ġneg re
ĠH er
Ġl e
AN C
Ġfor en
Ġpresid enta
exper iÃ¨ncia
Ġdedic at
Ġpressupost os
Ġpun tu
ener gia
ex Ã¨rcit
Ġtoc ar
Ġter reny
Ġint ens
ÑıÑı ÑıÑı
Ġpeti tes
ĠPol icia
Ġsab en
Ġde tall
tament s
Ġir re
Ġ :
Ġabsol uta
lec tius
am ar
Ġrelig i
c k
Ġtr uc
Ġprop ers
Ġsuper fÃŃcie
ĠP ir
Ġb ur
Ġpo di
re gar
Ġs ant
ĠconseqÃ¼ Ã¨ncies
C atal
us uari
qu ina
Ġterritori al
ĠF eli
Ġest rang
Ġpens o
Ġseg les
Ġindustri al
ĠC rec
ĠJun queras
gres sos
Ġpar ell
Ġllen gu
Ġpers pec
Ġh er
Ġb atalla
u ig
ab il
es taciÃ³
Ġdist ribuciÃ³
es querres
ĠeconÃ²m ics
Ġrecom an
ĠtÃ¨c nics
ol Ã²giques
Ġat endre
Ġi di
Ġe ines
os sa
Ġdi us
of ia
Ġparti d
Ġa igua
Ġrealitz aciÃ³
Ġinter p
9 9
Ġeuro peu
ĠdÃ¨c ada
G T
Ġhum ana
Ġm enti
Ġdelic te
Ġcon di
ĠDec ret
hab ili
Ġsitu ada
tad ors
Ġconsid erat
Ġdemos trar
Ġimpos sible
4 8
Ġeurope us
Ġcomp on
ex pl
Ġconcent raciÃ³
at x
or aciÃ³
Ġd orm
ari ciÃ³
Ġv Ãł
pr Ã¨s
Ġmer da
ĠR af
ĠUn it
Ġass ass
ĠJus tÃŃcia
Ġcor re
Ġser i
Ġimme dia
Ġcamp s
Ġc urt
Ġop iniÃ³
Ġnav eg
Ġap or
ĠG arc
Ġra ons
on da
ex p
tin guts
Ġinf ants
lat ura
al g
Ġt es
ĠPrin cip
lÃŃc ules
Ġenti tat
I F
Ġterri toris
ĠA g
s eg
t oc
Ġajuntament s
ĠB al
en atge
te u
Ġn en
Ġg o
Ġcre ure
c end
tar an
esti l
C AT
ĠC ON
Ã ī
Ġn asc
ĠJes Ãºs
Ġdoc umental
ĠprÃ² pies
3 6
ĠLu is
Ġcol ors
ens enyament
ĠL ocal
Ġconver tit
Ġpa g
ĠEs per
ven ir
exerci ci
Ġinform at
ĠO s
ĠS erra
Ġcon diciÃ³
Ġf ul
Ġmig dia
ĠAl guns
end ari
Ġocas ions
Ġex ecu
us os
ĠF ira
eta ri
Ġbri tÃł
Ġqu ins
Ġpleg at
Ġpl ans
Ġestar Ãł
Ġf la
Ġsil enci
Ġconsul tar
Ġco aliciÃ³
Ġ3 00
Ġpropos a
Ġsuc ce
Ġb all
Ġrecon egu
Ġun itats
Ġvo taciÃ³
ac onsegu
ĠServe is
m ant
Ġa prendre
Ġlim ita
Ġtall er
Ġva ix
ĠPro gra
Ġpu jar
Ġi gu
Ġdec ret
r y
Ġconc erts
Ġeuro pea
ĠpÃłg ines
Ġretor n
Ġcin qu
Ġinf ra
os itat
Ãºs ica
ura ciÃ³
Ġofici als
ra el
Ġguany at
ĠTerra ssa
Ġidenti tat
Ġobjec te
Ġl Ã²g
Ġel les
ĠC osta
S A
Ġc iÃ¨ncia
Ġgerm Ãł
ul m
Ġparti da
Ġorganitz a
ren ys
estruc tures
Ġinici al
ola u
Ġen rere
Ġord re
it Ãł
Ġdesp eses
Ġac cÃ©s
ĠD is
Ġdeclar ar
Ġvol eu
Ġdi men
f rica
fic ada
Ġes ca
Ġgener aciÃ³
Ġfa ig
prom ÃŃs
Ġd ot
f in
ĠQu in
ĠÃºltim es
Ġ200 0
Ġca igu
Ġind Ãºstria
cion alitat
Ġprogra maciÃ³
Ġes til
ĠP o
Ġdist Ãłncia
Ġinter Ã¨s
l and
0 4
Ġprop era
Ġresp ondre
ĠM ir
r ell
ĠCa ixa
ar e
ĠS om
t rica
Ġdif ondre
re tes
Ġorganitz ar
an omen
Ġfaci n
Ġfot ografies
ĠR ub
Ġsimp le
Ġnatur als
Ġa tenciÃ³
Ġdic ta
0 6
Ġex ac
un itats
Ġprogra m
ss ia
ĠI II
Ġxif ra
ti ment
P V
ic at
mb ol
r Ã©
ĠA t
Ġclara ment
ĠSal vador
udio vis
âĢĿ ,
gun es
Ġrecon Ã¨ixer
Ġsegui ment
l el
mp lia
Ġpo ques
Ġpeti ciÃ³
ha gi
Ġnorm a
Ġa tac
e va
vi la
m issiÃ³
3 7
http s
Ġfot ografia
Ġautor itats
Ġdificul tats
ĠGarc ÃŃa
Ġuni versi
ĠfÃŃs ica
ĠÃº ltima
Ġmar ge
Ġparl en
ĠAb ans
Ġreg al
Ġman eres
Ġvul gui
L A
ĠPal ma
' m
ĠSup rem
Ġca min
ĠC ris
Ġrecup eraciÃ³
Ġsub vencions
pos ar
ora ment
ti gi
termin aciÃ³
Ġtan cat
Ġt ÃŃ
Ġc Ã²
ĠAnd reu
cion alment
p ers
Ġs of
ĠO li
in dica
Ġracona ires
Ġgir on
5 00
ĠF esta
ĠN os
Ġexclus iva
emÃł tiques
H ospital
ĠMed iter
ist res
ĠM u
n er
Ġfin es
ĠT ri
Ġafec tats
Ġn aix
cin di
Ġhum Ãł
Ġ =
Ġb ici
Ġsegu rament
ĠL ond
le ts
Ġeduca tiu
Ġ tirar
Ġres pos
Ġta mb
Ġdes itj
er oport
Ġar quitec
ex istÃ¨ncia
Ġf id
u cion
Ġvol um
l Ãł
Ġte oria
re gat
inform e
Ġdom ini
Ġcomple ix
Ġveloci tat
on z
g ic
Ġtan ts
Ġas sign
Ġf lu
Ġregid ors
Ġ200 3
alu aciÃ³
Ġqu ines
v an
gu ez
ĠTan mateix
Ġdif usiÃ³
d essa
Ġpro ba
i eu
Ãłn ic
Ġinstitu ciÃ³
ĠÃ ģ
Ġens eny
Ġrecla ma
pi ra
Ġcla us
Ġ âĤ¬
g ell
en gua
arrib ada
r ena
f f
Ġdi ri
Ġv ost
Ġposterior ment
es tal
Ġtra jec
Ġe vid
ĠS im
Ġfor ta
Ġcomp liment
e da
Ġreflex iÃ³
ĠÃł rees
ur at
ada p
ĠG er
ĠFer ran
ord Ãł
ar ro
Ġ3 3
Ġgovern s
Ġeta pa
ĠC C
con omia
Ġinter ior
e e
ĠF igu
Ġres um
ĠJ orn
c ons
Ġen erg
ĠE ra
Ġ ompl
Ġescol tar
Ġsan g
Ġcompeti ciÃ³
Ġcons truc
Ġren di
Ġcompet Ã¨ncia
Ġsenz ill
ol esc
Ġefec te
ĠFran cis
ĠquilÃ²m etres
ĠprÃłctica ment
Ġvalenci ana
Ġe ina
Ġvehic le
Ġar tistes
ĠEuro peu
Ġprom oure
Ġesde vin
ĠY ork
Ġveu en
ĠCar los
Ġpres os
TA T
Ġass istir
ona ire
Ġte us
Ġdirec ta
Ġnuc li
Ġtecn ologies
Ġedifici s
Ġva cances
g al
og le
Ġs ug
Ġm ass
Ġmob ilitat
ĠT rans
Ġm ent
Ġpres ump
Ġunivers itats
Ġlleg it
ĠV I
it y
ĠAntoni o
ĠM et
Ġrelacion ats
Ġdi g
Ġrepresen tant
Ġp ista
Ġpres ents
Ġrecon egut
Ġna cionals
Ġactu ar
Ġe p
Ġagaf ar
Ġdom in
Ġrepres siÃ³
ha vien
Ġllui tar
r als
tes a
Ġcol la
gu ard
Ġp ell
v Ã©
ter n
Ġro da
Ġvinc ul
Ġdes per
ĠPer s
ĠS ense
Al t
Ġsor tit
Ġco di
Ġtar ge
Ġen vi
Ġn arra
itz acions
Ġpressup os
ĠAC N
ĠM ill
Ġen guany
Ġacord s
arÃł s
rÃł s
Ġhum an
Ġdom ici
ĠSan ti
mar ca
Ġpar lat
Ġlegis latura
Ġvi es
gu s
Ġcons ens
Ġregu lar
Ġesc ola
ĠCi Ã¨ncies
j ats
Ġoport unitat
Ġocas iÃ³
Ġexper im
ĠH um
e a
in ari
al guns
Ãł vem
ĠT Ã©
Ġassol ir
hab itatge
es ia
Ġb arcelon
Ġen cap
l is
Ġv endre
Ġ Î
ĠInter net
Ġesta tal
gu e
Ġass ociacions
Ġplat ja
ĠC re
ĠX ina
Ġsegu int
ĠTor ra
Ġan iversari
Ġa plicar
Ġmo ciÃ³
Ġcad ena
ĠpÃ¨rdu a
ode terminaciÃ³
Ġrob a
c os
Ġro d
Ġfe ien
e ques
v ic
ĠP ep
Ġhttp s
z o
ĠEs ta
n gel
i bilitat
gat z
expres siÃ³
lia ciÃ³
Ġtind ran
l y
capa citat
ĠespÃ¨ cies
Ġbar re
Ġver gon
Ġprof und
Ġlli ures
ĠM itj
ĠM Ãºsica
ou tu
Ġver ita
Ġm s
Ġactu aciÃ³
ĠB ern
Ġmos trat
Ġavan Ã§ar
r ÃŃem
U S
agra daria
Ġlid er
O G
ÃŃ lia
ĠB ra
Ġmen tal
Ġserv eix
op ciÃ³
ĠM entre
Ġinstitu cional
A g
ĠA M
Ġmani p
Ġllengu atge
Ġpar al
ĠS o
Ġpa ga
Ġa plic
in di
Ġno ia
ĠjurÃŃ dic
ul t
at ÃŃ
Ġacos tu
ĠP ob
e vi
Ġs Ã²
Ġplante ja
O c
ĠA juntament
or at
unci ar
ĠA N
Ġt eix
ass ociaciÃ³
Ãº ssia
Ġma tin
Ġref lec
4 7
Ġt rib
In ter
enti ment
Ġproba blement
Ġcan al
Ġv ent
3 8
ĠPrim er
Ġbus ca
Ġdis tin
d on
itz ada
Ġx oc
Ass emblea
ular s
Ġam eric
ĠJ uli
Ġen vol
ord en
men tals
ĠE r
Ġmin ut
Ġdis min
os ofia
á ½
Ġcomple tament
Ġm u
I s
it em
ĠSoci etat
m un
Ġres tes
0 2
Ġt rop
ĠfaÃ§ ana
Ġesta bli
Ġtren car
ar da
Ġdenunci ar
udi Ã¨ncia
ura ment
ric ultura
an tic
Ġpr os
s ol
Ġmod els
ĠCent ral
Ġcon voc
Ġconsid eren
Ġint ent
Ġreun ir
Ġb ut
es ca
Ġdirig ir
ĠeconÃ²m iques
aj uda
vi ra
Ġcons istori
Ġf ug
â ĸ
Ġre ti
ĠR oma
ĠPen ed
qu id
ĠC opa
Ġconn ex
par tit
Ġreg istre
D e
Ġv ess
Ġcont ribu
ĠD ani
ĠF ab
ĠtrÃł nsit
ĠH an
ĠC oll
ospita let
Ġtan ta
esc ol
Ġs essions
Ġconsci Ã¨ncia
es os
w eb
Ġpl u
Ġsim ilar
Ġg rec
di ques
Ġcon ferÃ¨ncia
ĠGrÃł cia
Ġsens aciÃ³
ti ts
ta ble
Ġpermet en
Ġconven Ã§
ĠSeg ona
ĠMa tar
Ġposi tiu
menta ri
m Ã©s
vis ions
ĠT ant
Ġgener ar
Ġplan i
Ġsolu cions
Ã± o
ĠrÃł pid
p ol
Ġinform e
li b
ofer ta
ĠCD C
Ġinver siÃ³
Ġpass en
Ġ4 5
i di
Ġre ci
ĠP ass
Ġa posta
Ġrac Ã³
Ġd ob
6 5
tac le
is os
om f
Ġre ducciÃ³
Ġfa cil
Ġport en
Ġinfer ior
el abor
ĠtelÃ¨ fon
Ġmarx ar
Ġdirig it
Ġaprofi tar
Ġsex ual
ĠUn ivers
C on
Ġin dis
Ġsol id
Ġconsol id
Ġan ual
mÃł tic
Ġf um
Ġpri vat
Ġpos ici
Ġrit me
Ġcomp ren
Ġg eg
ĠAl tres
ri ques
ĠAn na
Ġpro vocar
p ass
d ol
ĠCom promÃŃs
ad re
au di
or ci
Ġmiss atges
ĠJun ts
ĠLond res
ĠEn ric
Ġin j
ĠlÃŃ mit
Ġpresent en
ter o
Ġvig ent
ap ariciÃ³
ac cep
k y
Ġnecess aris
ĠF ar
Ġ5 00
Ġpri vada
Ġperman ent
ĠC ha
Ġno i
Ġretall ades
end emÃł
is tat
d Ã³s
ĠQu ina
Ġsig a
Ġfus ta
s es
Ġaccep tar
ĠMar ta
Ġjun ts
en di
Ġpor tat
ÃŃ fiques
ĠEs te
Ġqu ÃŃm
op iniÃ³
ĠAr tur
Ġsol idaritat
gu des
Ġceleb rat
ĠM ic
Ġrec ollir
Ġfru it
Ġbar ris
Ġb oca
ĠB iblioteca
ĠT witter
Ġj ard
Ġconfi gu
Ġmodi ficaciÃ³
Ġeurope es
Ġdeu te
Ġaug mentar
Ġexc el
Ãº r
evol uciÃ³
Ã² rica
m ina
A CIÃĵ
ĠCar me
Ã¯ tat
ĠvÃŃc tima
A b
Ġsitu a
Ġe ducaciÃ³
ti g
ĠO riol
Ġafec ta
Ġb ell
us tr
E ns
ĠG ab
Ġcal endari
Ġx erra
Ġpro b
Ġfrances a
Ġ ol
Ġaix ec
ĠX ar
Ġins cri
Ġinc los
Ġprodu Ã¯t
Ġimp ar
Ġjorn ades
ĠD u
ĠE UA
8 5
Ġent ra
Ġigual tat
l lar
Ġcor rent
Ġpre ci
Es p
u alment
Ġac um
ĠÃł mplia
ĠVall s
Ġcorrespon ents
Ġcom mem
Ġdirector a
Ġs opar
ĠPolÃŃ tica
Ġc og
Ġpolici al
Ġdi visiÃ³
Ġha ur
Ġor i
Ġfra se
Ġc Ãłm
Ġdirig ents
Ġdura da
Ġi gn
or ts
Es glÃ©sia
ĠI tÃłlia
Ġind ica
Ġpat ri
Ġdedic ar
ar quitec
g ers
7 5
Ġp eix
is a
ic ciÃ³
noti cia
Ġdiri gida
Ġdetal ls
Ġmen j
Ãł lia
Ġpub licitat
ĠG onz
eg o
Ġtext os
ĠC in
a ug
ĠP Ã©
Ġtreball en
Ġvul n
des a
3 4
T he
Ġpol Ã¨m
Ġsum ar
Ġ ?
eu ro
ĠD avant
Ġju ga
3 9
el com
Ġn enes
ĠD iss
i i
Ġman dat
Ġcli ent
Ġpens at
ĠCor ts
Ġaug ment
Ġsu ficient
Ġcomp r
Ġlabor als
ĠCon f
an Ãłlisi
Ġtrob o
Ġb u
fer s
ĠPened Ã¨s
Ġm assi
es for
os i
Ġdivers itat
at e
ĠP rat
Ã³r m
Ġproper es
Ġpol i
Ġrefer ent
Ġ &
Ġsembl ant
ð Ł
ĠFern Ã¡ndez
Ġm el
es de
opar l
Ġimpres cindi
Ġperfec tament
Ġmod er
Ġdesc ans
Ġcap davant
ĠMon tilla
si ciÃ³
Ġpregun tar
ec h
201 1
Ġ tir
Ġrelacion ades
Ġcontemp or
is p
O B
Ġcor rupciÃ³
ĠSup erior
tan s
Ġprodu eix
ĠG l
s el
ĠTur isme
Ġd alt
ĠN orm
Ġcomple ta
Ġalem any
201 2
ĠT al
Ġdub tes
id al
Ġrecol lida
Ġsindic ats
m oni
Ġdesp esa
Ġtrajec tÃ²ria
Ġa trac
ĠJo aqu
ll at
Ġespec ÃŃfic
ol uciÃ³
a prenentatge
rib uÃ¯
ĠC reu
Ġpens ament
Ġprotagon ista
Ġanunci ar
Ġop in
as a
Ġsap s
lici tar
ras il
ten a
an os
Ġgu anya
Ġresid us
Ġl og
Ġestruc tura
tr ats
. )
........ ........
Ġass istents
Ġalterna tiva
l ista
in ada
Ġt em
ÃŃssi ma
Ġf ol
Ġcan tant
Ġel ement
ven il
ell er
Ġassenyal at
da g
Ġarrib en
ĠT rob
gatz em
U L
ĠIC V
ri el
Ġdi aris
Ġpro voc
id ad
Ġcat ed
Ġlle ug
Ġesdeven iments
Ġtri ar
H ospitalet
de x
Ġcurs a
Ġdes it
T R
ĠIn f
Ġcons isteix
ÃŃ g
it Ãłries
Ġcar n
Ġrecom ana
Ġinter net
Ġneg ociaciÃ³
ĠDe f
Ġtrans par
ĠP unt
Ġ20 20
Ġex posiciÃ³
I G
Ġal im
ed eix
Ġindivid ual
Ġmerc ats
esc enari
as ti
Ġli ber
m ada
Ġe qu
l ent
ĠrÃł dio
Ġmed ia
Ġespeci als
ĠT om
en cs
p ot
Ġpro gres
ac tes
ĠP Ãº
4 4
Ġ Ãłnim
Ġprotes ta
l ada
Ġtan cament
al isme
Es tudis
Ġprohib it
Ġc ura
Ġsal ari
ĠVil anova
Ġbenefici s
ion ar
Ġb ot
Ġmot or
ĠB el
Ġvisi tants
Ġvir tu
Ġma tar
Ġb reu
Ġv all
can vi
Ġ( @
O s
Ġamb iental
outu be
Ġcomerci als
Ġdisc u
ĠCa m
apro vaciÃ³
Ġg reus
obre ix
Ġb iblioteca
ĠC OM
Ġrec ent
at erra
Ġdi al
Ġr at
Ġconstitu ciÃ³
Ġconta min
Ġsum a
Ġac ÃŃ
ĠP r
Ġ %
aut odeterminaciÃ³
anti ga
ĠMatar Ã³
ĠÃ Ĵ
ell Ã³
ĠPÃ© rez
Ġinform ar
ĠD uran
Ġpos en
T V
ĠVa ig
Ġtin dre
Ġcap s
er Ãł
ob res
Ġa vi
ĠI m
ĠConsell eria
tratÃ¨ gia
Ġc im
ĠMar ÃŃa
al ista
fer Ã¨ncies
Ġtri omf
e i
ĠprÃ¨ via
... ]
Ġde pen
ques tes
Ġb lo
Ġam or
ist ema
Ġsub rat
b ra
Ġcandi dats
er gia
Ġnecess Ãłries
Ġ15 5
emp le
ĠMartÃŃn ez
I P
ard o
ĠI V
ver na
Ġcaus es
Ã² f
Ġcom entar
Ġpaci ents
ĠAl g
Ġaut Ã¨n
g ats
d its
es tes
Ġgerm ans
Ġdomici li
ĠFrancis co
Ã²l ica
Ġent enc
y er
Ġqu elcom
7 7
Ġde tingut
Ġdifer Ã¨ncies
ĠP ot
as tre
d ora
om e
Ġmili tants
Ġimpl ica
Ġd ro
l ÃŃ
AD A
Ġd ut
Ġesp erar
Ġnacional ista
h ol
ĠD ret
Ġacompany at
ĠN atur
Ġmer eix
t ol
s ar
Ġabsol u
p resa
ĠS empre
agrup ament
Ġvo tat
o k
Ġcadasc un
al f
n cia
ĠPla taforma
ĠlÃŃ ders
ĠS embla
enci at
Ġsol ament
Ġexerci r
Ġdis cipl
Ġcon juntament
Ġreiv indica
ci als
lab ora
8 9
ĠF am
e taris
ĠT oni
ĠF el
or ge
Ġdis par
o re
t Ã©
cion es
Ġre per
cis me
Ġurb Ãł
Ġpre venciÃ³
Ġpas si
alum nat
Ġplante jar
Ġtrasllad ar
ĠB us
Ġtra du
ones tir
, ...
emp or
Ġgen era
p p
Ã¨x ic
ĠS eny
Ãłs ter
Ġrequis its
Ġm ida
Ġse xe
o taciÃ³
tica ment
Ġvis ites
Ġt ÃŃtols
all ot
Ã¯ na
aqu ell
Ġexper iÃ¨ncies
ĠCer d
ĠR osa
it e
Ġpodi en
Ġcons entiment
Ġperspec tiva
is enda
Ġinicia tives
Ġpers egu
Ġesti guin
Ġmul ti
Ġdisc rim
Ġre tirar
Ġmes tre
Ġt ro
âĢĵâĢĵ âĢĵâĢĵ
labor ar
le z
ĠT Ã¨c
Ġpres a
Ġin n
efec te
us siÃ³
Ġcer ca
S S
que tes
Ġllo guer
Ġpe Ã§a
ĠD ol
ad ia
Ġreser va
apar tat
ran ger
independ Ã¨ncia
ic al
ĠestratÃ¨ gia
Ġimmig rants
ĠRac onaire
ĠG a
ĠX IX
Ġvide o
Ġmes tres
Ġh onor
Ġv et
Ġf res
ques tra
imp acte
tu a
cep ciÃ³
Ġfem in
t ella
ĠPa blo
ĠCom arcal
Ġcot xes
Ġfar em
ĠS r
as h
Ġpo esia
ĠQU E
ÃŃ cies
b is
ag o
av era
Ġen ca
ĠE t
Ġital i
Ġvo tants
e o
4 6
Ġsan itari
ĠLa porta
Ġadministra tiu
Ġpropos ar
pedi ent
Ġclassi ficaciÃ³
Ġt op
en i
ĠC olau
ol la
Ġe dat
Ġprim Ãłria
Ġpro pa
Ġcent en
du es
Ġsim il
Ġo pos
esp ort
Ġloc alitat
ĠRaf a
Ġperc entatge
Ġfom entar
Ġmo tiv
ar ma
Ġtreball at
ren ed
* *
E conomia
Ġs enc
Ġres istÃ¨ncia
ĠR ic
Ġempresari al
Ġimp lan
Ġtradi cionals
Ġt ribunal
Ġan gles
Ġelector als
lus tra
g or
Ġop era
b at
Ġri ques
Ġconsul tes
ĠRec ord
Ġcanvi at
Ġmaj ors
Ġperiod istes
rÃŃ guez
b ac
Ġes tal
ar di
Ġcompro var
ĠGu ill
Ġargu ments
Ġ3 6
ĠG i
Ġpais atge
Ġprac tic
m Ã¨s
ĠCon ver
titz aciÃ³
In terior
Ġnombros es
Ġes tiu
Ġnacional isme
Ġc Ãł
b es
ĠP le
Ġdemos trat
ĠV is
ant erior
iv era
Ġll istes
ĠJ x
Ġf aria
Ġs inc
U T
Ġg est
Ġfra g
% )
Ġt ut
ul ari
ĠRod rÃŃguez
Ġparl em
Ġob tin
Ã²n ics
Ġcomp let
Ġden Ãºncia
Ġpresid Ã¨ncia
Ġvul guin
ĠR Ãºssia
Ġlegis laciÃ³
Ġdeix ant
8 7
g ents
ĠC os
Ġf esti
ĠU P
Ġmalal ties
Ġent rada
ĠEl ec
Ġresta urant
Ġer r
Ġdist ricte
Ġta xa
di rec
ĠdÃ¨c ades
Ġre vis
Ġdi gn
ĠConstitu cional
Ġtreball ador
Ġprepar ar
Ġnatural esa
ĠT ru
m ats
Ġdes tr
Ġrevol uciÃ³
Ġc Ã²m
ĠA qu
f era
l Ãłn
Ġmilitar s
o w
Ġconver teix
ic ot
ĠSer gi
Ġsab ia
Ġcr Ã©ixer
ig n
ĠB anc
5 5
habili taciÃ³
Ġdes g
ĠG r
en volup
ĠFac ultat
ĠN ic
a tac
ĠFeli p
Ġconvi vÃ¨ncia
Ġform ada
ĠPrincip at
Ġgar ant
r Ã³
d ard
ber g
ĠespÃ¨ cie
ĠTot es
crip cions
U M
Ġb ol
Ġf isc
in eu
ĠD os
u alitat
Ġtend Ã¨ncia
Ġs Ã²l
Ġcal c
Ġexper ts
ĠdemocrÃł tic
Ġm ac
f ra
Ġlle t
ĠB r
Ġreun ions
ĠR oca
ĠS on
ĠB rus
ta la
Ġequi pa
Ġtra ducciÃ³
alitz ats
Ġvicepres ident
ĠCol oma
Ġxif res
Ġperm Ã¨s
Ġcircums tÃłncies
oport unitat
Ġadministra tiva
Ġinflu Ã¨ncia
en o
Ġpin tura
Ġv es
Ġcaigu da
Ġes tre
ÃŃ tim
ven i
c ol
Ġbaix ar
ĠM od
Ġpermet rÃł
Ġ Q
Ġreb uig
Ġt omb
ci ls
ĠÃº til
ĠRob ert
l tip
Ġdefens at
Ġcomp orta
Ġpis os
Ġben estar
Ġcomun s
ĠlÃŃ mits
Ġpu ta
elec ciÃ³
Ġt h
u ela
Ġcoll ons
ĠÃł rab
Ġimp ostos
ĠV ia
at ch
Ġen orm
ĠS ar
ass istÃ¨ncia
Ġer ror
Ġ[ ...]
Ġpantal la
ess os
ig ital
Ġnete ja
ĠdÃ¨ fici
ici s
Ġpres tigi
Ġsor presa
ĠT ele
U na
ĠProgra ma
Ġcreix ent
Ġfron tera
ri ls
Ġpob lacions
ob ertura
Ġcom o
Ġcont Ã©
ĠfÃł b
Ġquar ts
a ma
U I
ON A
Ãł cia
Ġgesti onar
Ã²n iques
Ġtan tes
Ġofer ta
ĠUn i
ĠEspa Ã±a
ĠB ell
Ġdis f
AA AA
Ġmus ulm
ĠT res
Ġcos sos
ug at
Ġrealitz a
Ġpos ada
Ġvalor aciÃ³
g ans
ĠJ ocs
= =
C A
os ten
ĠIn d
Ġcal drÃł
ĠcrÃŃ tiques
rop oli
ĠS ch
ant e
ĠF iscal
ter ia
Ġn atura
Ã¯ n
in ats
Ġfil s
Ġmasc ul
Ġutilitz at
tin er
Ġnove tats
ĠGo ogle
ĠA pro
Ġa tra
igu el
Ġtempor al
ĠM ac
ĠC el
Ġciutad ana
P A
Ġpe us
Ġvis cut
Ġr os
ĠC u
investi gaciÃ³
Ġesfor Ã§
Ġdarrer es
Ġaut omÃł
d om
Ġnombros os
Ġtesti moni
y o
E m
ĠT i
fran ca
ura da
ab el
Ġs oc
en g
Ġavan tatges
ĠV e
id o
Ġsus pen
Ġan tics
Ġre vel
ĠÃºnica ment
por aciÃ³
alcal dessa
Ã²m iques
Ġdia gn
Ġpa ti
Ġpro ve
Catal unya
Ġsig n
8 6
Ġno ies
ĠC ad
ĠP on
Ġen em
or da
Ġnom enat
Ġproteg ir
Ġtan c
Ġen lla
Ġco operaciÃ³
ĠComun icaciÃ³
h ospital
ar ca
Ã² ric
ni um
k er
Ã¯ ts
Ġm ÃŃ
gl aterra
rÃł nia
3 2
un ta
Ġcom anda
Ġve iem
ĠSol idaritat
l in
empres es
av aluaciÃ³
and re
Ġsobiran ia
ces si
-- -
Ġeduca tius
D es
Ġocup ar
7 0
Ġcontrol ar
Ġmus eu
Ġfac tors
ure m
us k
Ġexemp les
uc h
ha m
Ġn u
Ġalcal de
Ġl ema
Ġtan ca
ban isme
Ġpro xim
ĠJo hn
A lacant
Ġpri vi
4 9
Ġintro du
ĠR og
ex ecuciÃ³
ĠA f
Ġdist ribuir
I mp
Ġpos ant
Ġco opera
Ġrep te
Ġprofessor at
Ġesc enari
Ġf Ã³rm
ĠXar xa
es tratÃ¨gia
ĠL os
ĠC rist
Ġextre m
Ġobjec tes
H i
Ġimpuls ar
Ġrem arc
ĠT u
Ġag rup
Ġgu er
Ġveg e
Ġmanifes tacions
ĠA li
ell Ãł
Ġ200 2
Ġmor al
hi vern
ĠCom erÃ§
Ġcon du
Ġin gressos
eg ar
ĠÃ©s ser
Ġciutad Ãł
ĠCom itÃ¨
Ġper judi
Ġresid Ã¨ncia
os o
i e
Ġmajor itÃłria
Ġag res
Ġconc essiÃ³
hes iÃ³
Ġdisponi bles
Ġplan tilla
U C
Ġdeman en
ĠM ira
leg is
D E
Ġte at
Ġpor tu
Ġcon grÃ©s
Ġenf ron
Ġp ont
giny eria
ĠgrÃł cia
Ġregid ora
tany es
ĠCas al
ĠCa mbra
ĠF ou
f Ã¨
ĠEspanyol a
Ġa gu
ĠPor tu
ĠD esc
Ġla menta
Ġprotagon istes
A ix
vi er
Ġdefin ir
te t
v era
Ġg ira
el im
ĠF re
eres a
lus ions
Ġor g
ĠM iguel
m m
Ġanomen ada
ĠI gual
Ġcompl ement
?? ?
Ġdol or
ĠR oc
Ġde gut
Ġmat rimoni
Ġcient ÃŃfica
ĠA lex
Ġmatin ada
Ġsup eri
ĠRep ublic
3 1
TA N
Ġes querra
Ġdign itat
tin o
ap at
er ador
Ġneg ar
Ġs Ãł
Ġpla ta
Ġdeclar at
Ġcar b
Ġ15 0
Ġform acions
Ġ200 1
Ġdin ar
Ġgra us
ri da
ĠMar e
Ġcal or
Ġsub venciÃ³
Ġtrop es
AN T
al Ã§ada
ĠIndepend Ã¨ncia
ON S
il ia
tr on
Ġrel at
Ġm ens
ĠE con
Ġesc la
p oli
Ġfed eral
Ġtr enta
Ġre acciÃ³
Ġre cap
Ġg el
ĠDem ocrÃł
Ġdeix en
Ġencap Ã§al
Ġesfor Ã§os
Ġdispos ar
licitu ds
Ġvin ent
om panya
ac us
5 9
Ġreb aix
Ġcomunic ar
Ġar mes
al im
Ġrepres entar
qu Ã©
Ġceleb rarÃł
p oll
Ġa Ã¯
Ġdedic ada
R e
Ar t
Ġeduca tiva
Ġnaix ement
ĠB an
Ġpos s
Ġata cs
ĠP rom
aqu ells
oti di
arag all
Ġpro te
Ġ u
Ġplan eta
Ġorganitz ada
Ġpens ant
Ġel e
Ġcos tu
Ġimm ob
Ġtrans formaciÃ³
ĠmÃº ltip
Ġcreu en
h u
Ġespectac le
Ġcenten ars
Ġhab itatges
Ġsegu eixen
Ġa C
Ġca mbra
Ġenll oc
Ġdi pl
ĠPat rimoni
ĠMol tes
Ġproduc tiva
ina m
terior ment
Ġan i
ĠC ub
Ġestabl ert
va cions
Ġmarc ar
alg una
Ġvalor ar
Ġinclo ent
ĠLla vors
Ġent rades
ĠFran co
Ġa plicaciÃ³
Ġcom iss
Ġa igÃ¼es
arrib ar
it ors
Ġv id
ĠPrim era
o ciÃ³
ĠbÃ© ns
Ġconser vaciÃ³
Ġcontrac tes
Ġconcep tes
Ara gÃ³
Ġrep or
ĠFac ebook
ĠS eu
Ġmusic als
ÑıÑĩÐªÑıÑĩÐªÑıÑĩÐªÑıÑĩÐª ÑıÑĩÐªÑıÑĩÐªÑıÑĩÐªÑıÑĩÐª
ĠrÃłpi dament
Ġvig il
ĠB os
Ġcon vocar
Ġa ten
ĠCA TAL
Ġad di
Ġvergon ya
Ġpo eta
Ġperm ÃŃs
esfor Ã§
Ġafir mar
reta ria
Ġel ev
ĠÃł mbit
ĠC la
p t
Ġespec ÃŃfica
ĠavanÃ§ at
Ġs amar
Ã¨n ia
ĠFigu eres
guard ia
in er
ĠCons orci
tes i
Ġrec entment
Ġrepe tir
201 0
6 6
Ġexcep te
Ġcap ÃŃtol
ĠB is
Ġtemp eratura
ĠC orn
ĠM Ã³n
A udiÃ¨ncia
Ġpar ar
ĠmÃ¨t ode
Ġsi mb
Ġusu ari
im a
Ġcompor tament
vat ori
Ġposi cions
ar tista
Ġac tiu
te d
ins tal
Ġb ran
Ġa pren
espe ci
adÃ¨m ia
Ġac tiva
Ġabsolu tament
l em
Ġord en
Ġac tors
Ġcadasc Ãº
Ġil les
Ġcont und
enta da
Ġpropi etaris
7 9
Ġmanifes tat
Ġl u
8 8
Ġt rip
Ġnuc le
Ġapar Ã¨ixer
Ġafeg eix
Ġ4 00
tan ta
ĠIn formaciÃ³
Ġfre d
Ġqu otidi
Ġdi gui
Ġlle tra
ci tats
Ġhip ot
Ġ3 2
elabor aciÃ³
ĠX i
Ġaproxim adament
Â «
ĠA hir
ĠN Ãºria
Ġanti ga
vin guda
Ã ¶
ĠmÃŃnim a
Ã¨n cer
om ena
u ment
ĠJ ap
mes a
Ġincl Ã²s
Ġf eli
av al
fici na
Ġrespons abil
or b
ĠC E
ĠP ens
qu eu
ed es
v als
ĠV ir
Ġpil ota
ĠcrÃŃ tic
Ġex terior
ĠD a
Ġsig nar
ass egu
ĠConver gÃ¨ncia
Ġv ell
Ġequi val
fi quen
tu als
ĠestÃł s
O n
Ġcomp osiciÃ³
ac es
Ġfen omen
ĠBrus sel
Ġsub jec
Ġhab ita
Ġaf avor
O V
ĠR el
Ġconsell era
l ine
Ġp op
Ġconegu ts
imp ort
Ġess ent
Ġac titud
Ġconflic tes
Ġest ona
Ġn au
espec tacle
l um
ĠP ri
ĠRe agrupament
IC A
ĠTor re
Ġtri partit
CI A
Ġexac tament
Ġrelig iÃ³
Ġaspec te
Ġconvers a
ien tals
ob i
ĠNos altres
Ġven en
Ġapun ta
ĠP lan
id Ã¨ncia
ub i
Ġac lar
Ġinnov aciÃ³
Ġcapa Ã§os
ĠQu im
Ġdes f
Ġsin gular
Ġhist ori
om ent
Ġmec an
Ãł tics
M ar
ĠbÃłs ics
Ġbas at
Ġinvestig adors
Ġ Ã²p
at ures
ĠO ficial
Ġno is
Ġrepublic ans
Ġinten ta
Ġsenti ment
ĠdÃ¨fici t
Ġlle tres
i taris
ĠH ola
b urg
Ġg ols
Ġre als
Ġg all
re p
7 6
Ã§a ment
Ġo i
Ġnorm alment
Ġderro ta
ĠC N
Ġmenj ador
aug ment
ĠR et
a eroport
Ġvost Ã¨
Ġac redi
Ġcons tru
Ġatur ar
ec ess
Ġcomen cen
Ġampli ar
Ġmi rada
c as
ent ura
Ġcivil s
Ġdot ze
d os
m nium
m ana
all Ã²
Ġmos tren
Ġpar Ãł
ĠVila franca
Ġrespos tes
ĠB re
ĠEs tic
x ar
Ġmarc at
Ġconc lou
ĠcÃłr rega
ĠÂ »
Ġmet ge
ari es
Ġ ðŁ
ÃŃn cep
met res
ĠAut Ã²n
Ġdelic tes
Ġnasc ut
ĠcomenÃ§a ment
Ġdon arÃł
A ut
gen tina
Ġfil osofia
Ġsal var
Ġm era
ĠT h
apat ero
Ġhom enatge
Ã² graf
Ġdetermin ar
ĠDes envolup
ĠT ecn
Ġg es
Ġcli ma
Ġimprescindi ble
Ġapar eixen
g ol
Ã¨ tics
Ġinterpre taciÃ³
Ġbaix es
Ġa udiovis
Ġrep tes
Ġcons ells
ÃŃn s
dal us
Ġparticip en
Ġn er
Ġt ros
Ġf ull
Ġ18 9
Ġco her
Ġin ven
ĠPod eu
ĠB at
Ġh ospital
an unci
Ġcontrac taciÃ³
Ġsosten ible
el ada
lec tual
Ġt rim
ent endre
Ġmed iter
Ġcont ribuir
Ġesc ala
ĠR ivera
Ġra di
ĠcÃłn cer
Ġesc ollir
Ġelectr Ã²nica
ĠPar ti
Ġreb el
Ãłs tica
Ġdiv ul
Ġimmig raciÃ³
Ġrelle v
Ġpe dag
Ġexpress ar
Ġ7 5
Ġpod rem
Ġconnex iÃ³
ĠM Ã¨xic
Ġmo da
ĠCar re
x o
Ġrec ons
Ġinc om
Ġf ant
Ġidenti ficar
Ġb any
Ġcam ins
Ġal eg
Ġsimil ars
Ġf ira
Ġconstr uÃ¯
Ġpar ad
nov aciÃ³
ac c
Î ±
Ġde dica
fic ant
C N
Ã¡ lez
Ã¯ a
' '
Ġdep Ã¨n
lib erament
ĠMar ina
Ġ3 8
Ġfuncion aris
Ġdenunci at
ass ar
Ġpres er
Ġlegis la
Ġbici cle
is h
Ãłr rega
Ġat emp
gu eren
Ġpass arÃł
7 8
Ġquar ta
Ġva gi
an ista
Ã± ol
is sa
ĠJoaqu im
Ã²leg s
Ġc ans
el va
menta da
Ġlec tors
Ġsetm an
ol lida
Ġrecla mar
ĠAl fons
Ġpo guÃ©s
Ġac ud
vol uciÃ³
Ġrecord o
Ġprepar at
ten siÃ³
1 00
Ġparla mentari
Ġindepend ents
Ġva c
A t
ĠFel iu
Ġcoordin aciÃ³
or al
Ġv ora
ĠM aragall
Ġpass os
i vis
Ã¨m ia
Ġracona ire
ob ser
Ġfe tes
Ãłria ment
Ġprov oca
Ġcomp ens
inc or
Ġc Ã¨l
Ġesdeven ir
Ġrespec tivament
Ġimpos ar
Ġex prÃ©s
Ġdesenvolup at
in ver
ec s
Ġes men
i z
li gÃ¨ncia
ĠMol ts
Ġal liber
ĠGonz Ã¡lez
Ġen llaÃ§
ĠB loc
Ġam unt
Ġbla ug
enf ron
Ġins cripciÃ³
Ġjut jat
Ġpass eig
ĠS h
Ġav alu
tr ol
Ġguany ador
ĠFer rer
Ġtorn ada
ĠCas tella
Ġes tu
li d
ad os
Ġdefini tivament
Ġsent o
Ġproxim itat
Ã¨ u
ĠB il
Ġopin ions
Ġcateg ories
y n
Ġnecess iten
Ġutilitz aciÃ³
Ġpro toc
Ġesc ons
Ġsitu ar
Ġnacional istes
le ta
Ġrecol z
Ġap ortar
ol er
ol f
C E
Ġinc on
ĠS ants
ĠAn dorra
ĠV en
g na
aut onomia
Ġsor pren
Ġur nes
Ġcr is
Ġdi ria
all er
ĠCa mb
Ġindic at
Ġresta uraciÃ³
ĠvÃŃde os
ĠcientÃŃfic s
Ġan irÃł
Ġocup a
p ons
Ġregu l
at er
Ġen viat
Ġ3 4
v et
le y
Ġdefin iciÃ³
e val
EM A
ĠCol om
in ten
I CI
Ġser ien
Ġad olesc
Ġsur ten
vi es
qu Ã©s
Ġutilitz ant
Ġaband onar
pr Ã¨n
Ġmod erna
ĠEl l
ĠjurÃŃ dica
aconsegu ir
ĠhistÃ² ries
Ġsindic at
Ġmar es
Ġad jun
itz ats
Ġllic Ã¨ncia
ĠM au
an tar
Ġdesc rip
ili ar
Ġa tre
Ġcomb at
Ġgu ia
ĠForm aciÃ³
Ġrelle u
t os
Ġcontinu Ã¯tat
ĠS eb
americ Ãł
ĠV ill
Ġconstitu cional
Ġmobil itzaciÃ³
pi tal
lec tiva
eu re
Ġriques a
ĠT el
Ġob tingut
ed o
S I
ad as
di es
ĠB la
ill erat
Ġtar dor
Ġleg als
Ġcri teri
Ġm all
ĠZ apatero
Ur gell
Ã² tic
m ica
Ġvolun taris
Ġme ves
Ġb ibliot
Ġintegra ciÃ³
Ġcadasc una
Ġor gull
Ġvi atges
Ġque ix
Ġs ÃŃn
Ġinterp reta
Ġpres en
Ġv oc
Ġca u
ĠEs pe
Ġmodi ficar
Ġinj us
Ġeng any
Ġconcre tament
Ġtre ts
m as
ĠMari ano
Ġescri ta
Ġc i
Ġverita ble
Ġi b
Ġten siÃ³
P P
Ġan alitzar
Ġexisteix en
Ġpob resa
ĠT orn
esta bl
Ġempres aris
Ġinclou re
Ġboti ga
ilib ri
ĠC ugat
Ġconfir mat
r ents
Ġsupos at
Ġsegui da
k h
Ġirre gular
ĠG as
Ġra s
Ġpend ent
es qu
ĠVic ent
ĠUn itat
Ġat Ã¨s
ĠS or
Ġm issiÃ³
Ġg ro
p el
Y A
ĠN eg
Ġtor re
Ġtran siciÃ³
Ġve ient
ĠCor onavirus
Ġrepar tir
Ġcontinu en
on Ã¨s
li ques
T E
o va
ĠLl or
Ġinstru ments
b um
Ġa men
us ter
Ġcon ec
ĠCon veni
Ġban cs
Ġperme ti
esper it
Ġperi Ã²
ĠRog er
ĠAmb ient
en tals
Ġ199 9
ĠMerc Ã¨
Ġh id
M A
an glÃ¨s
ĠSanti ago
S ÃŃ
Ġg ru
rat es
ess orament
Ġcontra s
Ġsug ger
ĠS am
entis ta
Ġdirig ent
esde ven
ĠS c
Ġoc cidental
Ġesc ollit
Ġparticular s
Ġgra du
Ġfund aciÃ³
Ġdin tre
Ġf Ã²rum
Ġinver sions
ĠD rets
Ġpa tit
expres ident
ĠgratuÃ¯ ta
ĠAr ts
ri ment
l d
ĠP Ãºblica
Ġmet ro
-------------------------------- --------------------------------
ĠGra u
ĠW eb
ĠV idal
Ġall uny
Ġfil m
ass emblea
Ġexclusiva ment
Ġdisponi ble
" ),
P ro
ĠfÃŃs ic
Ġvi tal
a hir
Ġdicta dura
Ġll uit
Ġsobiran ista
Ã§ Ã²
Ġrepres enten
Ġestruc tures
esta bleix
Ġneg ociacions
Ġr ural
ĠestÃł n
Ġmar ques
Ġe h
Ġsub ministra
gi p
esta bli
Ġinici at
Ġex istents
l ot
Ġen questes
Ġar ren
alitz ades
Ġm onestir
Ġestudi ant
ĠS te
Ġdesta quen
l ÃŃn
ÃŃ mp
Ġfona mentals
mÃł tica
Ġaj uts
Ġinfra estructures
p it
Ġob ertes
Ġapun tat
al dia
Ġfrances os
Ġobli dar
Ġpar cs
le ga
Ġal ter
Ġestabli ments
cri t
Ġar r
Ġ6 5
Ġorig en
Ġcomp e
ti onal
ĠSoci als
Ġla ter
e an
Ġ â
Ġfigu res
Ġvari etat
ĠRafa el
Ġseny al
Ġul tra
Ġar que
Ġespor tiva
Ġrevol ucion
Ġposi tiva
Ġblo que
ex terior
Ġaporta cions
Ġfer its
D A
ĠDi ari
Ġbas ada
Ġlli urament
Ġe duc
id enti
ja ja
r int
Ġdoc ent
Ġac ollir
ĠCo ordin
Ġep is
dic ciÃ³
Ġpol s
Ġcog n
Ġcomb atre
ĠUr b
Ġpro vocat
R ES
um a
ĠCar od
Ġplu ja
Qu e
ĠÃ²r gans
Ġigu alment
ĠDi ada
Ġden uncia
Ġg er
Ġg ros
ed or
Ġin gress
oll ers
Ġpropi etari
pi raciÃ³
D i
Ġca i
Ġutilitz a
Ġri gor
ĠF em
qu ines
Ġre form
ha urÃł
Ġleg i
res tant
Ġtrac tat
Ġefec tu
ĠPortu gal
d ec
Ġcl ic
4 3
ev illa
m entaciÃ³
it ges
tÃłn ia
Per Ã²
ĠR u
Ġcompl em
Ġop eracions
Ġri val
on en
Ġsupos ar
Ġex t
id enta
ĠOr ganitz
ĠJ an
mon is
all s
ĠJap Ã³
Ġital iÃł
Ġincorpor ar
Ġimp edir
Ġtrob ava
ĠT ort
Ġvaix ell
Ġl ine
Ġent rat
Ġesta ria
Ġa er
Ġve ÃŃ
or gan
end o
ĠclÃłss ic
rer es
t om
ed ents
ĠB lan
ĠA le
ĠpolÃ¨m ica
ĠT im
Ġjur at
Ġpri vades
Ġvig or
Ġexerci ci
Ãº p
Ġaplica cions
w a
Ġcamp anyes
ĠT eresa
Ġg i
6 9
S ant
Ġju venil
Ġcerti ficat
Ġrequer eix
ĠF ood
Ġescri guÃ©
ones a
Ġun ir
Ġmil iÃ³
ĠRo vira
di pu
Ġsimp a
n al
ug es
Ġsoci etats
ĠR amb
ra ta
Ġcom una
w atch
f re
fici ents
AR C
i la
Ġre visiÃ³
Ġe d
Ġd inam
A mb
Ġnegoci ar
ĠRec erca
Ġte ves
ĠC ard
Ġjun t
Ġtind ria
ĠEL S
Ġf orn
m ir
an n
ĠFab ra
Ġd anys
Ġde tinguts
ĠC IU
g is
Ġmag is
gan da
Ġpri va
Ġan Ãłlisi
Ġre qu
li des
leg ar
ti bles
Ġgen i
Ġpresentar Ãł
ll ant
Ã§ ades
Ġfid el
ac k
Ġecon omia
Ġpar cial
ĠmÃºs ics
Ġsuperi ors
Ġefec tiva
ĠP orta
ĠFiscal ia
Ġestrang ers
Ġdis ting
Ġre cin
Ġfos sin
ĠD ep
ĠcrÃ¨ dit
ĠM ai
Ġreti rada
A s
Ġorgan ismes
Ġfrac Ãłs
tri u
Ġm Ã¡s
Ġjun ta
Ã²s its
Ã² lic
Ġrom an
ĠB ert
Ġ4 8
ti des
al istes
h istÃ²ria
ex ecutiu
Ġrenov aciÃ³
y outube
Ġsecund Ãłria
ass os
m al
Ġcirc ulaciÃ³
titu ds
Ġmanifes tar
ĠJo ventut
Ġali ments
Ġvin gut
Ġsab eu
ĠsÃŃ mbol
af eg
mol t
Ġr ere
ĠE du
c Ã³
Ġgaran tia
Ġd ates
ab ast
av in
Ġrep eti
Ġ Ð
Ġca ixa
Ġsan itat
Ġconsci ent
Ġconser va
Ġre tar
Ġfac tor
Ġdecid eix
u cions
Ġ3 9
Ġbas a
Ġpot enciar
cion ats
Ġpot encial
ĠH ist
Ġ3 7
Ġpre vista
ri ent
ĠGar cia
Ġregi ons
Ġobser var
da m
Ġerr ors
L E
en guany
Ġab ra
Ġconjun ta
Ġdetermin ats
emp s
entre vista
Ġmecan ismes
ĠAl ta
Ġ ×
ĠrÃłpi da
Ġro t
i ors
re ment
Ġclub s
Ġaj udes
Ġespor tiu
Ġoport unitats
Ġtotal itat
Ġporta da
Ġsom ni
ĠR AC
U B
Ġag rÃŃc
v itat
ĠbritÃł nic
Ġcorrec te
Ġalterna tives
Ġpens en
visi onal
oparl ants
Ġpil ot
ĠSet mana
Ġenf ront
Ġcost os
ĠPro jecte
en aris
as ta
ĠC ru
Ġd il
en llaÃ§
Ġconfir mar
im ag
ĠPos teriorment
Ġd ansa
Ġpod ers
ĠG estiÃ³
inc lou
Ġdis capacitat
leg al
ĠM es
ĠC lar
ĠJa vier
os ex
Ġmanifes tants
ĠN aciÃ³
ĠP ic
Ġx ines
Ġbis be
Ġr onda
e y
ĠTerritori al
egu da
Ġesp ero
Ġadqui rir
Ġescrip tor
on y
Ġrec Ã³rrer
tr al
Ġcar tes
8 4
ÃĢ rea
Ġdimen sions
z is
ĠRi poll
Ġinform es
ĠSeb asti
Ġsuspen siÃ³
od is
ĠacadÃ¨m ic
at o
og ia
ĠEs tem
ĠIns titu
ĠEsc ol
Ġredac ciÃ³
ĠT x
Ġasseny ala
ĠN omen
Ġver d
ĠD ar
tor al
C ar
Ġmall or
Ġincre ment
ĠDesenvolup ament
Ġr ell
Ġcomplic at
Ġcan als
Ġcompany ies
Ġagra dat
et o
Ġpen jar
Ġpens ava
Ġsembla va
ĠF ed
Ġter renys
ĠTor res
ĠPuig cer
Ġelabor at
Ġf ren
Ġtrobar eu
Ġassum ir
ĠG aud
ĠF o
Ġsec re
Ġinteress ants
Ġgo verna
ĠUn ides
cion ada
er gÃ¨ncia
ĠP in
Ġindi gn
Ãłn cies
or ld
Ġb Ãł
Ġacus at
Ġtesti monis
end er
Ġp ur
Ġfin alitzar
Ġcl ÃŃn
ropoli tana
I gual
Ġart ÃŃstica
Ġdestin at
Ġsab ut
l li
P ar
ĠA h
ena ment
extre ma
ĠgrÃł fic
Ġcob erta
Ġgovern ar
ĠNatur al
Ġfac tura
ÃĢ frica
ob rir
Î ¿
Ġhabitu als
Ġdes igual
Ġpro var
ĠMen orca
voc ats
Ġb rom
ĠhistÃ² rics
ĠS indic
Ġperfec te
aut o
Ġsol dats
a fec
ĠF oment
na cional
ĠIs rael
z ena
m el
ĠCan al
Ġta ules
igu es
Ġbl ocs
ar reu
ĠI r
Ġal um
ut bol
ĠH istÃ²ria
es me
Ġinter n
ĠÃł rea
Ġman tingut
ĠT ar
Ġpod rÃŃem
j u
Ġdesenvolup a
Ġsec ret
v oca
m arc
o da
ÃŃns ula
Ġju eus
ot ÃŃcies
Ġnegoci s
ĠB ur
Ġcob rir
Ġban des
Ġvuln era
Ġf anta
Ġfranqu isme
up aciÃ³
Ã²s tic
ĠL ES
Ġregi onal
Ġpen al
Ġdes emb
Ġestr any
ĠO p
Ġpob res
Ġprojec ciÃ³
Ġcan via
Ġinteg ral
Ġviat jar
Ġdeleg at
Ġgrat uÃ¯t
Ġreg lament
Ġrisc os
ar gu
ĠnÃºm eros
: -
Ġob ri
ĠGab riel
ĠGr Ã¨cia
Ġpublica cions
Ġmet od
4 2
Ġal tes
escrip tor
l ica
Ġd Ã²
Ġprofess ora
Ġacab en
Ġbar ra
Ġsol ar
ĠMer cat
ĠfÃłb rica
cion ari
Ġesta d
ĠXX I
ĠGuill em
ur ants
g as
or en
A ques
Ġt ron
Ġmar it
Ġdetermin at
Ġpro gress
ĠV ella
.. ...
al ada
Ġ Ã©
Ġt od
Ġ titu
Ġperson alitat
ĠM el
ĠP oble
Ġpal es
Ġsembl ar
ĠTer res
te ig
ac cions
Ġprim avera
ĠJo ve
Ġrendi ment
rim ir
ivis sa
ĠB omb
als evol
Ġquin ze
an des
ĠCamp ionat
Ġri ure
ĠDani el
Ġbas c
h ist
ĠLl engua
ĠSol er
Â ¿
ĠG el
ĠbÃłs icament
ĠN acions
Ġescri ts
Ġexp uls
Ġfemen ÃŃ
arc aciÃ³
at or
Ġinici alment
ĠmÃºltip les
em ma
Ġc Ãłl
re ci
Ġre tre
ĠS in
Ġelim inar
Ġprom ot
ĠB asc
Ġdeleg aciÃ³
is tan
s ense
og ar
ĠP A
v il
i k
d ran
Ġll atÃŃ
Ġb r
ĠFood s
Ġneg res
lu Ã¨ncia
O D
Ġmeu a
Ġfisc als
ĠS il
Ġjusti ficar
Ãłr rec
te or
s ec
ĠNe w
Ġmir ant
ĠU AB
Ġtrans vers
Ġfl ors
IC V
Ġb it
al em
Ġn eix
Ġverm ell
Ġan uals
Ġperiod isme
ĠI b
Ġquant es
ĠLli bre
i A
Ġen gan
am en
Ġ5 5
op s
Ġen ergia
ĠRe al
ĠPer p
Ġpos teriors
ĠcrÃ¨ dits
Ġpos se
ĠJorn ada
ĠcomenÃ§ arÃł
Ġcer ts
ex ili
ĠOl ÃŃmp
Ġe dicions
emÃł tic
ĠD im
Ġimmedia tament
ĠlÃ²g ica
oc ar
Ġrep Ãºblica
ĠUn s
P a
de f
Ġpres taciÃ³
ĠS evilla
Ï Ħ
rem entar
b rer
ES T
Ġe fica
Ġgen eracions
E F
Ġn ena
Ġperson alment
Ġcont ÃŃn
tr ant
Ġpolici es
Ġdisposi tiu
ĠAutÃ²n oma
Ġop tim
Ġcatalan isme
Ġnorm alitat
Ġpens eu
ĠH ar
n dia
ĠR en
Ġrespec tar
esti ma
Ġpat eix
Ġdoc ents
Ġfug ir
Ġcent enar
ĠG R
v ora
Ġm ou
ĠC urs
Ã²n ies
assi gn
Ġescol ars
ĠEs por
poli tica
Ġcondem na
O ficina
ĠB ona
A J
Ġm oure
Ã ¤
Ġdificul tat
Ġs uÃ¯
Ġofer eixen
" :
ci Ãł
Ġass ump
ĠP h
Ġpl ana
ob s
Ġide ologia
j ades
ĠD am
Ġintro duir
Ġide al
Ġregu laciÃ³
eg at
ut ri
ti ficaciÃ³
Ġc ÃŃ
201 3
ac titud
ci alment
tÃł ries
Ġp ess
Ġincl osa
Ġper tin
Ġreg ne
201 5
l anda
b y
Ð ĵ
ĠS A
Ġtrac te
Ġrem un
J a
Ġf it
ĠV ÃŃc
6 8
Ġna cionalitat
Ġlegi tim
ĠÃł l
Ġpublic ada
Ġca mb
Ġcal dria
Ġincorpor aciÃ³
Ġdesc end
a ig
ĠGran ollers
Ãī S
ĠCh ar
ĠBl anc
adre Ã§a
ĠNav arro
Ġconvers es
Ġsos tre
Ġpro visional
Ġf lex
Ġex pec
Ġcritic at
5 7
ĠF oto
Ġabsol ut
l var
Ġdorm ir
Ġtur istes
Ġofici nes
ta tives
Ã² cia
Ġvol ien
Ãº ries
em at
ES C
Ġad ults
Ġresponsabil itats
und o
ĠM Ãł
anc e
ĠEs t
ill o
ul ats
Ġvir us
om un
Ã ļ
rat ge
Ġll anÃ§ar
Ġrecin te
siva ment
Ġblan ca
Ġre d
ĠBos ch
Ġac omi
Ġrefugi ats
xi us
Ġpolici als
Ġfron teres
Ġno c
ĠP ac
ĠDef ensa
Ġimp eri
ĠCar rer
ĠRo ig
Ġconstr uÃ¯t
Ġevident ment
ing s
imp uls
Ġmun tanyes
ma g
v Ãł
ora ma
V al
on als
O b
" ).
ĠVan guardia
ol ls
Ġdipu tada
ĠRes oluciÃ³
gon Ã¨s
n g
Ġcan ta
Ġap la
ĠbÃł siques
ĠprÃ¨ viament
ĠTa mpoc
Ġll it
Ġfranqu ista
ĠmÃ¨t odes
Ġpresenta da
Ġdin Ãłmica
Ġamb dÃ³s
Ġcer tes
ĠCom Ãº
in als
Ġin fec
dic s
ÑıÑıÑıÑı ÑıÑıÑıÑı
Ġtra duc
itz en
DD DD
ust ria
Ġlec tor
Ġinclos os
ĠL lo
end rÃł
Ġmic ro
Ġaj us
co hol
Ġf all
ĠD eix
en questa
Ġ ull
Ġtur ÃŃstic
ĠReg lament
ord ar
Ġcastell an
ex plica
Ġser vid
Ġmedi eval
Ġrealitz ada
Ġinteress ats
la va
at oris
Ġn um
Ġdeb ats
ĠSer Ãł
Ġpressupos tÃłria
ĠEsc ola
ĠTort osa
Ġprepar aciÃ³
Ġoc ulta
Ġa fici
ĠF orn
Ġprocedi ments
Ġde di
Ġjo ventut
Ġcristi ans
ĠRepublic ana
ill es
Ġompl ir
Ġtorn eig
est ranger
ud ar
Ġen vers
Ġneg ativa
Ġsigni ficat
Ġme ta
Ġespor tives
T ot
Ġ oli
expl otaciÃ³
Ġsegu idors
i ri
ed ia
Ġrefer eix
Ġ199 8
Ġdesp atx
Ġefec tiu
EL L
Ġc res
es tudis
ul ant
C al
Ġign or
Ġal ts
Ġh otel
Ġv endes
ja va
Ġteix it
Ġhor aris
dalus ia
ĠD iv
Ġar ti
ĠfÃ³rm ula
Ġtr ist
Ġre tir
Ġinvesti dura
Ġesdeven iment
l it
Ġcas ar
Ġbus cant
9 0
Ġen questa
di da
Ġtrim estre
Ã²c rates
8 2
PS OE
Ġpri vats
Ġfe ines
ĠU R
Ġqu ota
Ġsup erat
acab a
ĠAss ociaciÃ³
Ġinstru ment
Ġpu jada
Ġcomp a
ĠPa ul
Ġsembl en
Ġf lo
Ġr up
Ġsal es
Ġ <
y es
Ġdes ob
Ġ4 6
Ġblaug rana
Ġcon ferÃ¨ncies
Ġpass ejar
ĠF e
Ġmul titud
ĠEmp ordÃł
Ġtranspar Ã¨ncia
Ġsuper vi
ili tar
iny Ãł
ĠG in
Ġdesc ens
ĠPro tecciÃ³
Ġren unciar
Ġin qui
s oci
Ġpropos at
rem i
V ic
Ġins truc
quis iciÃ³
Ġdeb atre
Ġata car
ĠT ol
ĠW ill
Ġun ilat
qu era
Ġdi p
Ġmin isteri
u u
Ġfam Ã³s
Ġcrid ar
Ġc ir
Ġmill ores
ota cions
?? ??
Ġvo re
Ġneg ra
Ġgui tar
s en
ĠtrÃł mit
ÃŃg ens
americ ana
le u
Ġband eres
Ã² x
Ġtorn arÃł
Ġen mig
Ġsub ven
Ġinform acions
Ġcomun icacions
Ġmet ges
p ens
Ġurb ana
N I
ĠJ er
ĠV II
ĠP s
Ġprob able
Ġinter vencions
af ir
Ġcritic ar
Ġconduc tor
Ġmun t
p ica
re al
ĠMan el
establi ment
Ġz ero
vi ure
Ġpla u
Ð °
Ġpron unci
ĠFern ando
? .
w i
we et
Ġnoc tur
l as
Ġuniversi taris
Ġimpl em
ĠF ot
Ġass ociaciÃ³
Ġll anÃ§
Ġpa pers
ĠJo ves
Ġinten tat
Ã² b
Ġinc omp
Ġresul tar
i od
Ġconsci ents
Ġparla va
ec te
Ġbell esa
Ġrealitz ades
Ġemp le
ĠB rasil
ĠF on
omb ra
Ġsor oll
Ġesp ort
ĠUni versi
is tia
Ġtind rem
Ġproced ents
Ġpod reu
Ġeste u
ĠM em
Ġus os
ĠCris tina
Ġpr Ã©s
Ġindivid uals
Ġ" "
Ġd up
Ġcal ia
Ġpac tar
Ġsup era
ĠmajoritÃłria ment
Ġcomun ica
Ġh os
ĠIs abel
ĠAl gunes
Ġpar rÃ²
Ġha v
Ġper du
ĠImp ort
Ġconc reta
ĠS itges
Ġunivers al
ĠCamp s
Ġprior itat
T a
Ġun iÃ³
or re
Ġn et
tor at
Ġcamp ionat
aqu ella
Ġfavor able
Ġmanten en
ĠA gu
ĠS t
Ġpre ven
Ġimmedia ta
Ġv ins
Ġtreball adores
Ġaix o
Ġlider atge
Ġeix os
di gital
Ġser vi
Ġf o
Ġcat Ãłleg
ĠAlg Ãº
reg ada
Ġdes de
Ġar bres
Ġsenti ments
Ġ6 00
ĠC F
Ġb el
ĠGu ardi
Esp anyol
Ġgerm ana
per Ã²
ĠE d
ĠReg istre
Ġserv it
ĠR us
Am Ã¨rica
Ġbal anÃ§
g ant
Ġbla u
Ġre vistes
Ã± Ã±
ĠestratÃ¨ gies
ĠB ri
Ġesper em
ĠD ins
Ġha urem
Ġdona va
at Ã³
? ,
Ġpan car
Ġver sions
ĠT rac
ĠT C
Ġqued arÃł
Ġf icciÃ³
Ġan aven
Ġl uc
ĠPrem is
ĠTru mp
gles ias
Ġplani ficaciÃ³
Ġcompon ents
Ġconsell ers
Ġpen sions
ĠR oss
ĠTen im
Ġo posiciÃ³
Ġcontac tes
Ġtemp le
enc e
Ġf ri
ul en
Ġhab itatge
Ġpl ats
Ġsupos o
un g
EMA IL
Ġcondem nat
ĠH ome
Ġpot Ã¨ncia
Ġd retes
Ġanterior ment
ĠF u
Ġdi gi
Ġins istit
Ã² tica
er d
Ġnove tat
Ġper jud
Ġconc lusions
in icia
Ġ---------------- ----
Ġemp rened
ĠCC OO
Ġanim al
ec tes
Ġfun dar
Ġdifer enci
Ġcre ada
Ġnega tiu
ex pedient
Ġesper ant
Ġveu rem
inc rement
Ġvess ant
Ġdispos at
Ġsin o
ĠconvenÃ§ ut
ĠG re
Ġexp liquen
ai res
Î ½
Ã¨ tiques
Ġord res
Ġdescar regar
ĠB ol
Ġes qu
Ġanti gues
Ġpos em
Ġcon ci
6 7
Ġinclou en
Ġav all
Ġtur ÃŃstica
Ġalem anys
Ġrefor Ã§ar
en ces
Ġform ula
Ġsol en
S C
Ģ âĸ
ĠB ro
Ã¨c ord
Ġl in
ra eli
Ġprotes tes
vi ment
Ġboti gues
Ġresta urants
Ġvol dria
ĠO rien
ĠK a
Ġrei al
Ġtarge tes
Ġpin tor
ĠRamb la
ĠD r
Ġh ui
Ġespanyol ista
ass ass
em ergÃ¨ncia
ĠEste ve
all Ãł
ĠA z
ĠRib era
Ġcomple tar
Ðĵ Ðĵ
âĢĵ ,
an ca
l ant
Ġ" .
Ġrepublic Ãł
Ġapro vada
ĠcÃłm era
cip aciÃ³
ĠP ons
201 9
Ġal emanya
Â ¡
ĠD ra
Ġac cident
Ġevol u
Ġdescob ert
Ġa qui
Ġesta cions
Ġar ros
Ġsac ri
Ġprofes siÃ³
or u
Ġall ot
Ġcens ura
ĠD igital
Ġmat rÃŃc
ĠM essi
Ġmos tres
ar quia
h otel
ĠPro fes
Ġob re
Ġgener alment
ari o
ĠÂ ¦
ti tat
Ġf ÃŃ
Ġre tal
mp t
eg en
ons ell
Ġvol tes
p la
ab and
Ġdes tÃŃ
Ġfeli Ã§
Ġecon om
Ġimp acte
Ġposs essiÃ³
Ġprivi legi
ĠIn ici
Ġcre us
Ġfines tra
Ġcartell s
on ades
ĠA na
Ġ rid
Ġar ts
Ġespectac les
noti cies
Ġcamp iÃ³
ĠmÃ²bil s
Ġmat Ã¨ries
Ġdigi tals
Ġal lar
men et
Ġreb en
Ġprogram ari
Ġgaran ties
Ġoper aciÃ³
Ġcan cel
Ġespectac ular
ĠelÃ¨c trica
ur als
Ġfor ts
Ġsignat ura
Ġobli ga
U D
me di
Ġterritori als
Ġpreocup aciÃ³
ĠP oc
ĠE v
Ġp obre
I ES
us e
Ġc m
ant ena
ĠTor rent
Ġdetec tar
Ġin vers
Ġac ull
ĠÃ ī
Ġdeix em
Ġgru ix
Ġpla er
le tes
ris ti
Ġhaur ÃŃem
en siva
ĠV end
ĠPir ineu
ĠT R
ĠG erm
in et
Ãłm ic
ĠS ols
Ġop tar
tor n
Ġfl or
Ġmerc ad
AR A
Ġdoc umen
ĠmÃł quina
Ã± os
ti rÃł
Ġregis trat
Ġvir tual
Ġad onar
Ġpo emes
un ivers
Ġmal trac
ĠÃ ļ
Ġsubstitu ir
j e
200 9
Ġ---------------- --------
ĠMediter rani
Ġmod alitat
Ġpropa ganda
Ġf ur
Ġrequ eri
form e
Ġm Ã¨ri
Ġtram itaciÃ³
Ġtorn en
ron at
ĠLa ura
Ġal iment
ri em
ul la
Ġcre iem
Ã¯ des
Ġaccep ta
Ġofici alment
itz ant
Ġdispos en
Ġamena Ã§a
Ġpar ada
Ġresid ents
ĠS enat
Ġindustri als
Ġhuman itat
ĠAm Ã¨rica
m od
Ã¨l gica
ales hores
fic ades
ĠAr t
Ġbur ges
Ġvolun tari
ĠBer lÃŃn
ĠH onor
Ġin vas
enc ara
ĠestÃłn dard
cis ta
Ġf on
ta g
Ġren da
Ġob er
al gunes
im mig
it h
ĠCo di
à ¸
5 6
Ġele vat
Ġsamar reta
8 3
Ġaixec ar
Ġenseny ar
Ġart ÃŃstic
Ġenorm e
? "
Ġpropi etats
Ġfal tar
Ġsepar a
ĠVÃŃc tor
Ġem bar
l ules
ĠD iu
Ġorigin als
in tegra
Ġes quer
Ġcer vell
Ġtal lar
es tic
am es
Ġobli gacions
Ġvis u
Ġac oll
ĠD en
Ġpend ents
Ġcr u
ĠD eu
Ġlliber tats
Ġcom itÃ¨
d f
enti tats
ĠmÃ² d
Ġimplan taciÃ³
Ġargu ment
Ġtrans metre
Ġsenz illa
o ur
Ġform ulari
An t
ĠQu ant
Ġl ong
ĠS us
estr ena
Ġxerra da
ĠF Ã²rum
f ar
Ġse qÃ¼
aran ta
Ġuniversi tari
Ġcob ertura
Ġbru tal
Ġpass ava
Ġb a
Ġpaci ent
Ġs Ã¨ries
8 1
Ġar tes
Ġde tenciÃ³
Ġfinanc era
Ġad met
Ġconc lusiÃ³
Ġ4 2
Ġpot enci
ĠL lar
Ġenerg Ã¨tica
Ġre formes
ĠÃº nics
Ġexplica cions
A ten
ogrÃł fiques
Ġre it
ir ona
Ġpan orama
ĠS istema
AR T
Ġcom issions
tor ia
ĠCon tin
Ġque di
ĠmÃŃnim es
ĠL as
Ġcan tar
o tar
Ġradic al
Ġcirc ular
Ġinaugu raciÃ³
t Ã²ries
us ias
acab ar
an Ã¨s
ĠCarre tero
ES O
al eg
Ã²c rata
esper anÃ§a
utilitz a
ĠE ducaciÃ³
Ġexig ir
Ġc iÃ¨ncies
Ġleg alitat
Ġcirc uit
rÃł cia
Ġadap tar
Ġfavor ita
erat ures
Ġen reg
ex emple
re gues
Ens enyament
ĠfÃłcil ment
Ġunivers itÃłria
Ġexpres sa
ĠM ent
Ġins ul
Ã§ ats
aj ut
Ġviv im
4 1
ĠJ ean
Ġac tius
Ġres tric
ĠbÃłs ica
ĠH ab
Ġadop tar
Ġem bl
ĠLa bor
esta bilitat
________________ ________________
ura dament
Ã²r gan
Ġadequ at
ĠSeny or
Ġconform itat
T ER
ĠlingÃ¼ ÃŃstic
ĠC s
ribun als
Ġpat ro
Ġens enya
Ġdesc ri
Ġti p
ona ments
ac e
Ġad jud
7 2
Ġfacil itat
Ġfund ador
Ġex hib
udit ori
t y
" ;
Ġgeg ant
Ġintens itat
ĠGra menet
Ġprof un
vin gut
âĢ ¦
Ġcapital isme
esp Ã¨
Ġcomp tarÃł
Ġmos sos
inter ess
Ġrelacion at
Ġafec ten
Ġcre ma
Ġma quin
Ġexpl ÃŃ
ing ton
ĠC op
i ar
ĠCon tra
ha gin
ĠLli ure
ad Ãł
Ġro ck
ĠprÃ²xim s
Ġb allar
Ġparlament Ãłria
Ġseny ora
in teg
pos a
Ġaut o
Ġcondem n
eix ement
Ġpun ta
Ġlli urar
Ġsex uals
a plica
Ġdeman ant
ĠEn guany
Ġtal ent
Ġr Ã¨cord
em bl
S eg
ĠVic enÃ§
Ġsan itÃłria
Ġplena ment
C D
m ic
Ġtarge ta
Ġn acions
Ã©s ser
Ġdetermin ades
Ġporta va
Ġpot ent
Ġcer ves
Ġtre u
al ÃŃ
Ġcar es
Ġpet r
Al emanya
Ġrid ÃŃc
ran Ã§a
ĠS en
Ġcai gut
ÃĪ N
Ġpl ens
Ġh Ãłb
Ġmili tant
Ġb uit
Ġpis cina
ten cions
Ġob erts
ĠDirec tor
Ġtr ens
Ġem erg
Ġdist ribuÃ¯
OG C
u te
Ġa Ã§Ã²
Ġassegu ren
tr onomia
an ada
Ġre habilitaciÃ³
ic k
Ġent Ã¨s
inter canvi
tad o
Ġreg la
im m
Ġhip Ã²
Ġocup aciÃ³
ĠG en
ĠMar tin
ĠP ilar
t rics
Ġan dal
Qu an
Ġsent en
Ġmusulm ans
Ġi tiner
Ġest ric
Ġbibliot eques
Ġaf rontar
Ġn ad
Ġlleg int
arquitec tura
edi Ã¨ncia
ĠSÃŃ ria
ĠEs tudi
ĠF al
Ġt ec
Ġcap ella
Ġcent rals
Ġdefin eix
Ġprepar a
ĠBar ber
w n
G E
Ġad her
Ġ4 3
Ġcompar teix
ĠS osten
ĠcrÃŃ tics
dre ts
Ġmitj an
pa is
an siÃ³
ĠC ont
ĠT inc
Aques t
Ġpat eixen
Ġve ter
ĠMar esme
k ing
ĠbÃłs ic
me z
Ġen giny
200 7
AL L
ĠR iu
An dorra
Ġpr ol
l ats
Ġtri at
Ġas pir
Ġredu Ã¯t
autor itat
ran c
V A
an omena
ĠM c
Ġcompos itor
Ġv ides
Ġva gin
ĠL leg
ĠB es
Ġc Ã³rrer
Ġdes trucciÃ³
Ġbarre ja
extre m
alitz ant
ĠCub a
Ġrealitz en
N G
Ġins pec
o quen
ĠAr rib
Ġcom te
Ãłn dol
E B
Ġf ederaciÃ³
es sion
ĠJx Cat
as e
G u
ĠAn glaterra
ph p
Ġtrob ades
9 5
it ori
av o
Ġar rel
ĠXV III
er als
Ġcarre teres
Ġdestac ats
ĠT ota
ul tats
Ġsal uda
Ã¯ nes
Ġequipa ments
ĠDi visiÃ³
aciÃ³ n
Ġsuc c
Ã¡ r
Ġafec tat
Ġacompany ar
Ġan tica
ti ss
ar n
Ġnova ment
Ġrepar timent
ĠL in
Ģâĸ Ģâĸ
ins cripciÃ³
Ġimpres sion
Ġta ri
Ġaprofi tant
Ġcli mÃłtic
Ġapar tat
ĠD ÃŃa
Ġcom and
Ġ199 5
Ġconstitu ir
ĠCin ema
er ciÃ³
Ġmera vell
ĠS elva
g ades
ĠAM B
i ria
Ġtes i
ĠC ic
Ġprove Ã¯
apro fi
dem n
hum or
W eb
Ġpar elles
Ġcandidat ures
y e
Ġcatalan ista
Ġinteress a
Ġconser v
ĠM ass
emÃł tics
Ġcri tica
Ġ199 0
ĠM ur
Ġmin oria
c eta
Ġlli Ã§
ot ge
and ro
ĠAd ministra
Ġm als
Ġpr ÃŃncep
ĠI glesias
ĠS ha
Ġmin im
Ġx D
enta ri
Ġesc ena
Ġtrans cend
ĠS Ã³c
Ġmat ric
Ġc ub
ĠP all
in en
ĠF ons
uÃ¯ ssa
Ġcon eixen
Ġexpos icions
Ġgiron ÃŃ
Ġimme di
S al
Ġe ixa
Ġra ti
et ent
ĠUrb ana
ĠVend rell
Ġmar gin
Ġve ia
Ġra mad
em enti
Ġidi oma
que z
ĠLl oc
Ġcoordin ador
ĠAn ti
Ã² bil
ĠS ER
ĠT ex
mb ia
7 4
ol d
m eria
ĠR ed
Ġ199 2
Ġcastell ana
Ġinterpre tar
Ġpar ets
Ġa di
Ġcon g
Ġp ir
f l
ĠpÃºblica ment
Ġdeman des
na u
a min
Ġha bilitats
Ġcomp tat
a gu
Ġespec tadors
ĠB Ã¨lgica
ci ta
mb ols
7 3
Ġcorrec ta
ĠOc cidental
ina cions
of t
Ġde ien
fic Ãłcia
Ġcor pora
ĠP an
ĠF utbol
Î ¹
Ġdesp le
Ġprofund itat
Ġpleg ats
ĠBa ges
h el
Ġpre vistes
Ġpas siÃ³
Ġt emÃłtica
ha guÃ©s
Ġlla c
ras es
- .
EU iA
Ġlle vat
ĠAl lÃł
ra cions
ĠclÃłss ica
Ġmassi va
Ġfeix ista
Ġpre vis
S T
Ġjudici als
Ġesc enaris
Ġx ic
ort en
Ġqu aranta
ar xiu
Ġtin ent
rÃł tic
ine us
Ġbosc os
Ġval ora
Ġs ona
IS T
ĠB u
Ġcin emat
c c
Ġregis trar
Ġll in
Ġmun tatge
ad e
ĠJ O
Ġcomb inaciÃ³
Ġconsid eraciÃ³
Ġso vi
Ġse ix
Ġimplic aciÃ³
al liberament
Es pai
Ġvisi ble
Ġviv int
c re
ar ts
u taciÃ³
Ġrec omp
Ġescri u
ĠsÃŃ mpt
Ġv istes
ĠC AP
Ġdiscrim inaciÃ³
Ġadequ ada
Ġinten tant
ĠG il
Ġdeb Ã²
Ġno tes
in do
f ins
Ġh ec
Ã ĩ
Ġprotoc ol
in Ã¨s
Ġpre visiÃ³
Ġfer ma
Ġcul tures
Ã² bia
ĠRi era
Ġimmob ili
ĠdÃ² lars
Ġcontamin aciÃ³
ĠBomb ers
Ġca fÃ¨
ll er
Ġ193 6
Ġmenti da
Ġcinqu anta
ex plicar
ĠF ra
us ta
amp liaciÃ³
eg em
Ġcap i
Ġestar an
Ġdi d
200 8
Imp eri
d in
ĠT O
Ġpro grÃ©s
Ġexpress at
Ġm Ãłr
u aris
ort un
Ġcons ecu
Ġan nex
Ġliter Ãłria
Ġs ard
amb ient
Ġtin guÃ©s
e bre
si us
Ġesta ble
Ġamen aces
on ja
Ġhav ÃŃem
J C
Ġdeix o
Ġp ion
Ġvis ual
ĠpolÃŃtica ment
Ġha vent
ti vistes
5 8
ins titut
Ġf ixa
qu ing
ad equ
ve tat
Ġcu a
Ġdisposi tius
Ġfix ar
al ar
Ġvis c
Ġdestin ats
Ġm Ãłster
esdeven iment
Ġpar cel
Ġnecess item
tri ques
Ġhor ari
Ġmedi cina
Ġdepend Ã¨ncia
G A
Ġcor reg
Ġt on
ot els
Ġafavor ir
ui z
ĠprÃ©s tec
ĠU B
l itat
ĠL ÃŃ
hor ari
bil itzar
ĠJ ac
ordin ador
orden aciÃ³
Ġpo ema
Ġfemen ina
Ġtemp eratures
Ġd uc
Ã¯ m
Ġdismin u
ĠD ones
ĠC r
Ġsorg ir
Ġterror isme
Ġpi ano
ĠE R
Ġner vi
Ġconv Ã¨ncer
g ics
Ġrom ana
Ġbaix os
Ġcompar aciÃ³
egu des
Ġrecup er
ĠMa y
Ġ199 7
asc ens
Ġdi ada
ĠGar ri
Ġem etre
um na
6 4
Ġestabl erts
Ġvi va
ĠÃĢ ngel
Ġjug ant
ĠC irc
ĠJ orge
ĠES P
ĠDÃŃa z
i ents
s on
Ġtrans missiÃ³
ĠL eg
Ġhabitu alment
Aix Ã²
IV A
Ġpregun tat
Ġsal t
Ġexpres siÃ³
ĠFam ÃŃlia
Ġquanti tats
ol e
ĠPres idÃ¨ncia
Ġdro gues
al tat
Ġ199 6
qu ista
Ġal er
Ġfom ent
Ġprof unda
ar de
Ġis raeli
o y
Ġquad rats
rib uÃ¯t
Ġe ti
Ġquad re
Ġparti des
Ġdon i
Ġseg ell
201 4
Al bert
Ġb il
Ġin g
ĠOrien tal
Ġlong itud
Ġla mentat
Ġ4 4
ad ar
Ġamb dues
Ġprop Ã²sit
Ġmass es
Ġdes pres
ta ven
Ġfines tres
av an
Ac adÃ¨mia
terna tiva
Ġsim ul
ĠK ar
Ġcul min
oo oo
Ġmodi ficacions
avin guda
Ġsal v
Ġcuri Ã³s
ĠtrÃł mits
c ra
Ġt ru
Ġfun da
ili ats
gip te
Ð ¸
gus tÃŃ
ĠBer ga
Ġped res
mes os
Ġsolu cionar
Inter net
ĠFor c
Ġc ine
Ġa tura
Ãį ndia
Ġs op
ĠH ern
ĠPÃº bliques
Ġrecep ta
ĠBern at
Ġfun cionar
Ġauton Ã²mic
ogrÃłfic s
Ġpar et
Ġful les
fici Ã¨ncia
ĠmÃł quines
ĠA p
Ġdesen es
Ġall ÃŃ
Ġc ord
tor es
E TA
Ġigu als
ĠV in
Ġmon ument
Ġsatisf acciÃ³
M P
Ġmil it
da ta
Ġc ures
Ġfeix istes
Ġa ire
in ant
ĠA cab
Ġgu Ãłrdia
Ġa ules
Ġt ribunals
Ãłn chez
Ġarrib i
Ġter t
Ġauton om
Ġb or
Ġbicicle ta
Ġmobil itzacions
Ġgos sos
Ġrelacion ada
Ġh on
Ġcur ta
Ġinteg rat
ĠIns titut
Ġactu a
Ġpa ges
ĠSan itat
Ġelabor ar
H a
l Ã²s
Ġbri llant
Ġexcep ciÃ³
Ġreflex ionar
eix es
ĠS p
Ġdenom inaciÃ³
e ja
ĠSup er
ĠCorn ellÃł
ix en
Ġaug menta
b r
Ġvid re
Ġjo vent
ter mina
i bles
lÃłn dia
Ġdom Ã¨s
Ġdibuix os
ĠT r
Ġdefini tiu
reg ats
a ula
Ġdesapar egut
Ġaf ric
Ġtrasll at
H istÃ²ria
C as
b ul
7 1
Al cal
Ġm ons
s ers
Ġhor itz
Ġ' '
autor itzaciÃ³
ĠSegu r
ĠP ont
Ġins pir
Ġtra dicions
Ġapun tar
Ġpl atges
Ġcompr endre
ent ren
Ġretor nar
Ġnom es
vila web
Ġgener at
m us
ĠSec retaria
Ġexig eix
ĠC O
id s
ĠB arcelon
Î µ
Ġmarc ador
h onor
Ġmin istra
Ġdescrip ciÃ³
Ġav ant
Ġco hesiÃ³
Ġins ta
Ġarquitec t
5 4
ĠL uc
ĠAl b
Ġrefer ents
ĠP N
ĠVol em
ell as
h im
H em
E r
e tu
Ġcompet ent
Ġsosten ibilitat
Ġcent rar
Ġat ribu
les hores
Ġfot re
ĠPol Ã²nia
esqu ena
Ac ciÃ³
Ġcr on
ĠCons er
ĠsÃŃ mbols
com p
ĠC ant
Ġclar es
Ġ rib
et en
Ã³ mez
ident ment
ent rar
loc ar
ĠXV I
u Ã±a
ac tor
ĠC Ãł
B A
Ġcomp ara
Ġp Ãł
Ġconstitu eix
Ġb uf
Ġbe ques
ĠLli ber
Ġimpor ta
Ã§ ant
Ġvi us
p od
Ġefica Ã§
an tat
pec te
ĠQu alsevol
ĠE usk
vell Ã³
AC N
Ġvolun tÃłria
Ġassenyal ar
Ġfin ca
c Ã³s
Ġl Ãº
Ġarrib ant
Ġnota ble
ĠAc ciÃ³
ĠS Ãłnchez
Ġcomb us
g em
Ġdisc ussiÃ³
Ġor iental
Ġp q
ĠdifÃŃ cils
Ã¯ ble
Ġrefer Ã¨ncies
un i
ĠcÃ² pia
ĠautÃ²n omes
Ġcastell s
Ġprodu eixen
s egu
ĠfreqÃ¼ Ã¨ncia
Ġlu xe
Ġfu tura
ĠW orld
Ġo di
ĠSec retari
Ġdispu tar
Ġtransform ar
Ġtan cada
ospi tals
Ġren unci
om Ã¨
li gent
d ir
Ġcarre gar
l Ã¨ncia
Ġ25 0
ex ig
Ġrec tor
Ġvin tena
Ġespec ÃŃfiques
du res
Ġcer im
Ġb esti
Ġen ri
Ġar tista
ĠR eb
Ġr ol
Ġxi quets
Ġreligi osa
Ġdim issiÃ³
Ġex erc
e w
ĠP lat
Ġ12 0
e jament
Ġlli brer
Ġobli gar
Ġutilitz en
ent Ã©n
e te
Ġes bor
ĠDol ors
Ġest el
Ġassoci ats
ĠnÃº vol
ĠN u
ig o
Ġ4 1
ĠI l
Ġcapa citats
6 3
ĠG and
Ġpub lici
Ġvaix ells
M a
ĠSocial ista
ne y
Ġfinanc er
ors a
Ġa ux
ina ment
ĠGuardi ola
ac cident
al gun
Ġx en
Ġreg istres
Ġcob rar
Ġre ina
Ġcer car
Ġan uncia
d rom
Or ganitz
ĠR espec
Ġprom ou
Ġincor pora
ĠSec ciÃ³
li m
ĠelÃ¨c tric
Ġv eri
alcal dia
Ġedit orial
ĠCar men
Ġenlla Ã§os
Ġrebut jar
ĠÃģ lvar
A vui
ĠU GT
Ġme teor
Ġ199 1
ĠmatrÃŃc ula
mor zar
Ġess encial
Ġdesapar Ã¨ixer
Ġjard ÃŃ
ĠP et
tic ul
ĠEsper o
ĠquÃŃm ica
Ġcomp res
Ġmilit Ãłncia
ĠS uÃ¯ssa
ap or
Ġad s
ar es
ĠA R
Ġdi pos
ci as
Ġcomanda ment
Ġconc er
Ġm ix
ĠDiss abte
Ġpossi blement
Ġdem oc
ĠConc urs
ingÃ¼ ÃŃstica
aa aa
labor adors
Ġpetr oli
ĠRe is
Ġa ven
Ġrecep ciÃ³
ĠM ora
Ãº m
ac os
Ġre is
imp eri
m ades
Ġes tima
id esa
Ġ198 0
Ġc edir
Ġub icaciÃ³
d Ãł
Ġrealitz arÃł
arag ossa
americ ans
Ġper cepciÃ³
Ġab und
Ġacus ats
esc ena
Ġcom er
Ġcre ant
Ġafec tar
bil itzaciÃ³
Ãłs tima
h os
Ġform ats
Ġn egu
Ġcomen tat
im n
Ġdirig eix
ĠA lacant
Ġaudiovis ual
Ġdirec tes
Ġdes allot
mp le
incor por
Ġcontra dic
Ġimpuls at
Ġenc er
Ġrela tivament
equ ilibri
Ġpractic ar
ĠmÃŃnim s
Ġp istes
Ġinc rementar
Es tudi
Ġreg istra
ĠPro f
g os
Ġas pira
ĠP ara
Ġpens em
ĠPas qu
Ġconvid at
ena ix
Ġan ul
Ġh ero
Ġinici s
Ġsubstitu ciÃ³
ĠSal t
5 3
per quÃ¨
ad er
min is
titu ciÃ³
Ġreivindic ar
Ġvi an
Ġconser var
Ġjut ges
Ġn as
Ġesc ul
Ġja p
li qui
ac redi
Qu Ã¨
Ġconsum idors
Ġex istent
an itat
j i
Ġsubrat llat
b on
es te
Ġdesig n
ĠDom Ã¨n
ĠJ ust
ĠclÃłss ics
ÃŃn ia
Ãłc tica
evi tar
201 8
cid ents
Ġor ÃŃgens
Ġna zis
c les
M S
ĠS L
en tament
m is
ĠMediter rÃłnia
ient o
Ġcorrec tament
li Ã³
Ġbat x
Ġs ag
ĠFl or
re b
Ġcon duir
ĠG Ã³mez
ona ble
Ġin capa
ell o
Ġdipl omÃł
rena ment
Ġdimen siÃ³
Ġplata formes
men tant
Ġcontund ent
Ġvol tants
n ec
ĠMar g
á ¼
Ġpos es
Ġrelle vant
k u
Ġcor ona
dic o
Ġdestin aciÃ³
E E
Ġindivid us
Ġinfantil s
Ġesde vÃ©
Ġdispos ats
ri que
Ġcom arcal
I TAT
ĠespecÃŃfic s
Ġsec cions
Ġpor tarÃł
Ġsuc ces
Ġpro ven
ri ana
Ġm ana
Ġub ic
ĠB ot
gu itat
Ġjus tament
Ġnucle ar
ĠHonor able
cep te
ĠP omp
Ð ¾
alim entaciÃ³
Ġpar lo
Ġem issions
ĠS ob
ĠA leshores
ci ment
Ġderi va
Ġfeix isme
ĠF estes
Ġintro ducciÃ³
li ar
lle tÃŃ
AN A
an nex
ĠSebasti Ãł
Ġmad ril
utilitz ar
u ar
Ġperc eb
Ġfiscal ia
Ġpres tacions
Ġvideo j
gu Ã¨s
ĠA v
Ġconsol idar
ĠEstat ut
Ã²m ics
Ġdup lic
Ġbrom a
ant en
Ġjur is
Ġpassat gers
ĠR ES
Ġtele vis
Ġpreocup a
Ġqu er
ri tat
Ġpar er
Ġfabric aciÃ³
Ġprov Ã©
ĠHum ans
ern itat
isteix en
Ġanomen ar
Ġbon ic
ab ans
6 2
ĠR esp
Ġofer tes
Ġf rases
Ġli quid
i fes
Ġjug at
m entaris
Ġb ron
ĠH it
Ġafec tades
ĠMent restant
ĠprÃ²xim a
Ġencar regat
Ġtorn i
Ġdes n
Ġadver tit
pend re
ĠP acte
ĠE TA
Ġdes apariciÃ³
f Ã²nica
Ġtempor ades
a pa
ĠbÃłs quet
ĠComp any
p era
Ġ199 4
ro ga
t Ã©s
Ġdesple gament
Ġg roc
tin ciÃ³
en em
ne z
Al b
ĠM esa
Ġsan itaris
Ãº lia
ĠPerp inyÃł
Ġadolesc ents
Ġabs ur
end is
ĠAd riÃł
Ġver da
Ġsepar aciÃ³
ĠH ol
pe diciÃ³
ĠP IB
Ġcaus ar
on is
obli gaciÃ³
ĠProm ociÃ³
eg aciÃ³
V ol
Ġor al
i at
Ġpen ÃŃnsula
Ġreg les
Ġsorti des
) -
tor ell
Ġconfir ma
Ġn ul
Ġo us
Ġs emb
h id
Ġ4 7
Ġferro vi
Ġincid Ã¨ncia
tra s
ene Ã§
Ġac ompanya
ON U
! "
Ġcor rents
Ġdepartament s
Ġconcre tes
Ġitali ana
Ġcuri ositat
hau rien
ĠR uiz
Ġguany adors
Ï Ĥ
Ġpal au
Ġacord at
k el
actu ar
Ġcic l
anim itat
ĠC ov
Ġlabor atori
Ġent Ã©n
Ġauton Ã²miques
Ġcoincid int
imp or
Ġun ion
ĠC ort
ĠD ist
ĠEmp res
Ġrepor tatge
Ġtra Ã¯
ĠPÃº blic
ĠTri as
Ġpl ural
Ġrecomana cions
al umnes
c urs
Ġg ris
Ġdeleg ats
p ÃŃ
Ġdes af
ĠB ala
equi pa
Ġreun it
Ġus ar
ad vocat
6 1
ĠV ull
Ġass istÃ¨ncia
Ġon ze
tac les
Ġac tor
ofici na
vin guts
Ġin drets
Ġquali ficaciÃ³
Ġ ric
Ġmanifes ta
un ts
Ġta xes
Ġrom Ãłn
idi oma
Ġimagin ar
Ġdefens en
itz ades
ĠD ona
Ġc ess
Ġsi guem
Ġconvid ats
Ġdol ent
Ġindic ar
ori als
Ġorganitz adors
ĠDiss eny
esc riure
Ġur gent
Ġf rus
Ġform ant
Ġ rics
Ġex ecutiu
me dia
Ġcompren siÃ³
n y
ĠÃ į
ĠT IC
ĠCha mp
Ġxoc ola
op i
B C
ĠperÃŃ odes
Ġinter venir
ha ha
Ġde tenir
alum ne
ĠTele visiÃ³
ĠM A
Ġmin or
Ġsup orts
Ġcamin ar
ĠC ÃŃ
is ca
g ina
ig ht
Ġpu ja
Ġconver tint
ĠCl ara
Ġordin ador
Ġma gatzem
Ġexemp lars
ĠT ena
Ġfelici tat
Ġimplic ats
ĠG od
Ġesta ciÃ³
Is rael
Ġevol uciÃ³
Ġmedia mb
Ġfas es
Ġrom ans
ĠF onts
Ġdem arcaciÃ³
Ãºn cies
ĠTur quia
r aran
200 6
Ġeta pes
Ġcol on
Ġ ).
9 2
Ġcop a
ĠIn c
u ca
al tura
Ġsecre tÃłria
A ran
ĠP C
ĠPres entaciÃ³
5 2
Ã¨c d
ob a
Ur banisme
at h
ĠM oll
ĠSal Ã³
ĠLlor enÃ§
Ġestr elles
Ġha guessin
ro car
Ġru tes
ta tiva
Ġpartid aris
ob Ãºs
Ġprohib iciÃ³
Ġconeix em
esc ut
ĠV am
ĠautÃ²n oma
Ġtra ma
ni es
Ġconegu des
ĠÃ¨ t
ementi ri
Ġcon quer
ag ricultura
eta pa
m f
c ad
Ġmon eda
Ġp and
eri di
ta ria
Ġexpec tatives
ĠV III
Ġ ort
Ġa pa
Ġdedic aciÃ³
al tar
cion ant
Ġfor tal
apro va
ĠCon ferÃ¨ncia
Ġsol itari
anyol a
Ġespeci alitzada
ob ri
Ġcontinu arÃł
TA R
Ġv il
Ġdisseny at
Ġacompany ada
eneÃ§ uela
Ġgu iÃ³
Ġcomun ista
Ġro des
ĠFran k
Ġcent ra
ĠA D
og s
i ves
Ġde g
Ġescrip tors
Ġtrasllad at
Ġb io
Ġsubs tan
Ġh ar
ĠH am
ĠprÃ²xim es
u tar
ion ats
ĠparrÃ² quia
Ġesdevin gut
Ġseny ors
Ag ricultura
Ġespanyol istes
Ġex Ã¨rcit
Ġreconegu da
Ġas cend
Ġadministra ciÃ³
Ġterc ers
Ġd ens
Ġass ist
ul siÃ³
ĠA da
li ds
Ġpre cipi
ten en
Ġpre dom
Ġdiss ol
ĠMar roc
Ġurban ÃŃstica
Ġdetermin ada
201 7
Ġidi omes
Ġass istit
Ġelectr Ã²nics
ĠmÃºs ic
gra d
ĠE dit
ĠRo ja
Ġn utri
cion en
Ġvalor at
ut x
Ġre me
ab et
tin es
Ġacc el
Ġri us
Ġd ada
ĠfÃŃ siques
Ġc ro
Ġmolt ÃŃssim
ex pos
" "
Ġll anÃ§ament
Ġrecord s
ĠD els
Ġreivindic aciÃ³
Ġserv eixen
Ġ ya
Ġvisi tant
Ġdesc riu
Ġvigil Ãłncia
Ġjusti fica
Ġsubs crip
que ting
Ġsensi bilitat
Ġpin ta
Ġex ter
Ġan iran
Ã²c t
Ġfa vora
Ġacord ar
Ġguer res
vesti gaciÃ³
Ġindivid u
Ġcap itÃł
Ġsegu ra
li p
Ġrec oll
ĠT in
R o
Ġinteg rar
Ġes glÃ©sia
ri us
adap taciÃ³
i rem
Ġtend Ã¨ncies
Ġfar Ã©
Ġver b
AM ENT
n ou
b Ã³
Ġv or
Ġsubministra ment
ul sa
qu ins
Ġsobiran istes
Ġrom Ãł
Ġco re
Ġregu la
Ġapor taciÃ³
Ġ6 4
ĠPro c
Ġliter ari
Ġgarant eix
Ġrellev ants
Ġmun tar
Ġsocial isme
ut Ãłria
Ġb oni
ot eca
!!!! !!!!
Ġdirec tors
g onal
Ġn adal
ex ic
util itat
Ġass emblea
tiv o
Ġdiscipl ina
Ġcompar eixen
Ġprocla mar
Ġfer ides
inc endi
ĠUN A
ĠpodrÃł s
Ġgra vetat
ĠWill ia
cion alitzaciÃ³
Ġcorrespon en
Ġaddi cional
Ġd its
qu ir
Ġren ova
ĠAn gel
ĠComp anys
d eu
ĠB Ãłs
Ġvesti t
Ã² pia
Ġ199 3
Ġdirec tiva
Ġar ma
Ġesta da
gu ed
Ġfru ita
M E
ĠÃ²r gan
Ġdes truir
ĠM Ã¨
Ġperjudi ci
Ã± ez
c ents
Ġremarc at
9 3
Emp resa
ĠvÃł rem
te in
Ġpropor cionar
Ã¨ ric
tÃłn ics
Ġg ana
ar mes
Ãł u
ĠCi Ã¨ncia
Ġalcal des
s al
elec omun
Ġobligat Ã²ria
Ġp it
ut or
Ġagra ir
ĠL ic
Ġcrea tivitat
Ġin vol
ĠrÃł bia
bi ol
nes t
Ġdespla Ã§ar
5 1
Ġdi em
ĠMill or
Ġin tim
Ġextraordin ari
Ġcri ts
Ġpro tec
Ġles ions
Ġtitular s
Ġ8 00
Ġsor ra
enc anta
objec te
an e
ĠD NI
Ġaix Ã³
O li
Ġpas ta
Ġg am
at g
Ġdesapar eix
Ġcom icis
ÃŃ as
I tÃłlia
Ġocup at
Ġtrans por
ĠBl anes
Ġcompar tit
ĠPre cisament
Ġrepro ducciÃ³
Ġarrib arÃł
ĠU d
Ġv ui
Ð µ
ĠS ard
P R
ĠPat ronat
Ġweb s
ĠV eneÃ§uela
Ġav anÃ§a
ĠW h
ran o
Ġgovern ador
Ã²l ics
ĠPomp eu
Ġ8 3
ĠPl ana
ĠDipu tats
ĠV ox
ur ÃŃ
Ġcre ieu
Ã© r
Ġr um
9 8
Ġtracta va
tur ar
Ġcompe tir
Ġsus p
ĠSet embre
Ġseg res
Ġmet ropolitana
Ġcated ral
er as
Ġprotagon isme
Ġemo cional
ĠPress up
. âĢĶ
a ci
ĠPP C
Ġun animitat
Un iÃ³
Ġna zi
om et
anyol es
Ġinteress ades
Ġcerta men
em os
estudi ants
Ġex por
ĠM ob
ĠR ig
Ġcomprom isos
201 6
ĠGer ard
Ġde guda
s obre
ĠPuigcer cÃ³s
Ġexc ur
j uÃ¯
Ġaccep tat
Ġextraordin Ãłria
Ġesp iri
Ã¼ l
ap s
Ġad vocat
Ġrepro du
Ġsegu irÃł
AL S
ĠOli ver
Ġf ib
emp erador
Ġrevol ta
ĠIndepend entista
res pons
.... ..
p in
Ï ģ
b us
im Ã©
J os
oss es
Ant oni
Ġmon arquia
ĠG ui
Ġparla mentaris
ot e
A questa
Ġb ibli
Ġfir ma
o i
titz ar
Ġacos tar
ta mbÃ©
Ġdel in
ci ts
v it
ĠCan adÃł
tic al
Ġbra Ã§
Ġcostu m
ĠG ent
Ġb ale
Ġmat emÃłtiques
Ġconv oca
ĠVila Web
Ġfam osa
L le
Ġbatx illerat
v ella
w er
ĠInd ustri
indo ws
ĠÃĴ mnium
ĠNav arra
Ġorg Ãłnica
ĠJ ut
ĠbritÃł nica
alitz en
ert o
Ġvicepres identa
ĠCris ti
" ?
AN S
Ġint ensa
ass ol
ĠPodem os
Â ©
l lo
ad r
P L
mp a
Ġenf rontar
ti ons
ÃŃs ica
Ġon line
a posta
Ġdisc ul
ones os
Ġc h
Ġsom riure
i ona
z Ã³n
Ġt ub
Ġbus quen
Ġexpress ament
Ġam iga
ĠB all
C ol
Ġlleg enda
Ġconven ient
Ġac tituds
Ġpac tes
w ard
is mo
Ġinf in
Ġv ella
ac s
Ġm m
Ġcandi data
Ġde termina
Ġquali ficat
Ġbri tÃłnics
Ġre v
ustr Ãłlia
Ġ0 8
Ġrepe teix
Ġinform ativa
ro f
Ġeleg it
Ġfin anÃ§
Ãłm iques
Ġcinqu ena
Ġpa pa
Ġes mentat
200 3
ros sa
ex ecu
Ġperd ent
Ġpropor ciona
Ġtoc at
empor ada
Ġven ia
lar aciÃ³
A tenciÃ³
Ġdiscu tir
Ġdel im
Ġcom enci
ĠPer o
Ġdes esper
y ent
ĠBo i
ĠPir ineus
Ġconsider ada
ĠCamp us
Ġrecla mat
Ġrup tura
Ġacab arÃł
ĠH en
Ġenem ics
ĠT ran
u ments
Ġacompany ats
Ġimpos si
Ġcons tÃłncia
Oc upaciÃ³
Ġeix e
Ġa ga
Ġconv Ã©
ĠS aragossa
ĠP ra
Ġaprof und
Ġexpos ar
s ÃŃ
Ġform al
Ġal erta
Ġestr enar
Ġespor tius
Ġprevist os
Ã¼ r
ĠG av
Ġvian ants
Ġtan mateix
Ġx inÃ¨s
Ã§ Ãł
Ġseix anta
Ġsembl ants
Ġapro par
ir ar
Ġap reci
Ġh isp
Ġestr ella
Ġemple ats
Ġcontes tar
P D
] .
ĠcomenÃ§ ant
lan des
Ġsor teig
Ġconven is
ĠC S
tr os
en ys
Ġempresari als
Ġplante jat
P od
ric h
escrip tura
ĠL it
Ġhabita cions
Ġinstruc cions
Ġcomer Ã§os
ab a
Ġt Ãºn
s o
Ġh ospitals
Ġpen jat
Ġf ili
Ġtreball adora
. :
Ġcar net
ĠPu blic
Ġcomun istes
Ġafici onats
ĠB adia
Ġb ro
oc at
Ġdoc Ã¨ncia
edit orial
anomen at
Ġrela tiva
int ro
Ġgeg ants
Ġin vi
Ġp ura
Ġequ ilib
Ġsoci o
Ġsobre viure
Ġsuc re
Ġdeix i
ĠRel acions
Ġbaix ada
r ari
Ġinn oc
ha el
tiv itats
Ġtra ms
Ġhum or
Ġbomb arde
avo reix
Ġfuncion ari
ĠT S
am ena
ac ute
F A
Ġar xius
An y
ĠA gustÃŃ
Ġex ces
Ġaug mentat
rib le
u es
Ġdisseny ar
ĠRam Ã³n
ĠF ront
ĠSup oso
hab itatges
Ġmanten int
Ġvoc aciÃ³
od el
Ġva ja
Ġtrans ferÃ¨ncia
Ġagra dar
Ġtren ca
Ġcontin ent
ĠveÃ¯ nes
Ġdesc obreix
Ġfar mac
gn asi
Ġf Ã²r
Ġdra ma
si ves
Ġindi rec
ĠM arcel
av all
esc ala
as iÃ³
ĠcÃłl cul
ĠB uen
Ġentre vistes
ĠInf antil
ÃŃssi mes
Ġceleb rada
k et
o is
ĠCor poraciÃ³
ĠM AR
aqu elles
Ġexcep cional
OR T
Ġsepar ar
Ñ ī
ĠCam ÃŃ
ĠCas als
ĠcÃłm eres
Ġil la
Ġcr Ã²nica
AN Y
Ġi c
te ga
Ã³ ra
dac ciÃ³
Ġben e
Ġdist ribu
Ġsob res
Ġsem if
Ġmed alla
ĠPar al
og overn
ma il
Ġagrada ble
c lo
emble es
Ġpin tures
Ġdi Ãłria
esta di
Ġdiagn Ã²stic
n omÃ©s
EN D
Ġespor ts
Ġdeu en
Ġsur ti
% ),
ĠTÃ¨c nica
Ġauton omia
Ġdemos tren
Ġdes prÃ¨s
tic o
Ġsan cions
ĠPro jec
iss es
Ġrec ents
ĠEv identment
! ,
Ġunilat eral
ĠMar torell
ĠMa ta
ac ollida
ÃŃ tima
x en
ĠS ota
s et
ĠLl ull
Ñ Ĥ
ut en
Ġprim Ãłries
Ġvis itat
Ġ( ...)
Ġsenc er
Ġh ere
ag enda
Ġs at
Ġa u
Ġcanvi ant
Ġca ixes
ent r
tri citat
ĠR ad
ol id
Ġoc tubre
agra den
Ġpon ent
Ġins cripcions
x os
Ï ĥ
U E
est os
Ġmec anisme
rÃŃc ul
Ġ4 9
Ġins u
ĠV illa
Ġjut jats
ĠAr quitec
imÃ© nez
ĠÃ¨ x
Ġama gar
ĠRespec te
ons o
Ġg r
v ard
ĠJorn ades
Ġn its
c n
t ries
ĠC R
Ġdur ar
Ġ5 2
Ġconvoc ada
ĠForc adell
esper ar
ĠS em
ĠPall ars
Ġins tr
in aris
ĠB L
Ġpl Ãłstic
on ant
Ġes menta
eg eu
ed ors
Ġllar gues
Ġinc endi
un id
Ġteat ral
Ġdefin it
Ġhom osex
Ġtin guem
ER A
ta di
ula cions
Ġemp a
Ġintegra da
erra da
b ara
ĠPer iod
P la
al cohol
estal vi
Ġmor tal
Ġassass inat
un iÃ³
ĠPol it
ĠDiv endres
Ġestu dia
ĠI d
arquitec te
ĠBlan ca
ori entaciÃ³
ĠT rib
ĠprovÃŃn cies
ass es
E UR
Ġ198 9
Ġfill es
Ġcent r
Ġten ÃŃem
Ġfin anÃ§ar
ig Ã³
cri ts
Ã± ola
in Ãłria
Ġanomen ats
Ġorgan isme
ĠS ara
Ġassol it
Ġguany ant
Ġbra Ã§os
m ena
ĠBre tanya
Ġpos arÃł
alitz acions
! )
Ġpresenta des
Ġem Ã¨s
Ġcamp us
ass um
Ġc Ãºp
ĠZ ona
Ġvirtu t
k ov
n eg
3 00
ĠF la
Ġpac ÃŃfica
dre ta
imp ost
ĠM Ãłster
G irona
Ġcor rup
Ãłn ics
Ġemp r
ĠHit ler
argu ment
Ð ½
ĠI ceta
Ġgas tron
catal Ãł
Ġbanc ari
organ isme
Ġg la
Ġarr els
ÑıÑĩÐªÑıÑĩÐªÑıÑĩÐªÑıÑĩÐªÑıÑĩÐªÑıÑĩÐªÑıÑĩÐªÑıÑĩÐª ÑıÑĩÐªÑıÑĩÐªÑıÑĩÐªÑıÑĩÐªÑıÑĩÐªÑıÑĩÐªÑıÑĩÐªÑıÑĩÐª
Ġcontinu at
Ġdemana va
ĠMedi cina
na cio
Ġpatr Ã³
ĠD ina
Ġdescomp tes
Ġrelig iÃ³s
H orta
T C
Ġnaveg aciÃ³
Ġsu ficients
Organitz aciÃ³
Ġangles a
âĢĻ ,
h al
Ġres cat
Ġparticip ant
Ġtit ulat
Ġre ver
Ġcompl ert
Ġf icar
Ġemo cions
Ġanunci s
ĠlÃ²g ic
Ð ħ
Ġdesob ediÃ¨ncia
Ġn in
c em
ĠReg id
erg Ã¨ncies
ĠN om
Ġvo tant
Ġesta tals
Ġsorpren ent
Ġconf ess
Ġdesc riure
Ġan ant
Ġagres sions
Ġamb ientals
ag Ã¨ncia
ir Ã©
Ġem bol
Ġpl as
Ġlluit es
ist emes
ĠH as
av ia
? )
ĠtrÃł fic
Ġinteress at
er gies
ac ta
w are
Ġdescomp tat
N A
... ).
empres ari
Ġrec tan
tr Ãº
apar cament
ĠUn es
âĢĻ .
Ã¨c nica
Ġpes ca
Ġti ra
at ri
Ġcon tenciÃ³
Ġes g
Aten eu
V I
Ġespeci alitzat
Ġmalal ts
Ġ6 2
Ġma ti
Ġdes a
juÃ¯ c
w ood
ĠAlbert o
ĠMir Ã³
Ġeduca tives
Ġexplic aciÃ³
== ==
Ġblan cs
Ġterror ista
Ġre ma
Ġcommem ora
Ġsindic als
ÃĪN CIA
Ġevid Ã¨ncia
Ġsot metre
ĠsÃŃmpt omes
Ġan Ã²nim
F E
Ġtransvers al
: :
ĠaÃ¯ ll
ĠBor rÃłs
Ġtermin is
Ġposici onament
ut h
Ġclassi ficat
Ġmus eus
ĠT hom
Ġvalenci anes
i p
tri us
anim aciÃ³
Ġcul te
9 7
O rient
ĠÃ©s sers
Ġlim itat
redi ents
imp os
ĠÃģ ngel
ĠC AS
ha us
Ġsub jecte
Ġ $
Ġm isteri
Ġquotidi ana
Ex Ã¨rcit
Ġbo icot
abs Ã¨ncia
Ġdiver tit
ĠChamp ions
ed ent
Ġex tensiÃ³
ĠD ic
ell at
00 00
ej ada
Ġan tec
qui al
n orm
ĠVic ente
i us
ĠU S
U s
rac ciÃ³
Ġxocola ta
ale tes
Ġfacili ta
ĠF un
ob usos
Ġcol Ã²nies
Ġfid els
in ades
qu eb
ina ugu
Ġca ire
ĠGel trÃº
ĠDi umenge
Ã¨r p
Ġhi vern
anomen ada
Ġinclos es
les a
Ġmasc lista
Ġprohib ir
ĠagrÃŃc ola
Ġc essiÃ³
Ġequival ent
Ġg at
par a
qui es
L L
ci Ãĥ
C an
Ġno bles
il lament
Ġconstruc cions
Ġneu tr
vi u
Ġvi via
Ġpos o
ĠLliber tat
Ġin demn
ve us
Ġl ici
h is
Ġconf ron
v int
Ġcin quÃ¨
Ġac ol
Ġcontrac tar
Ġpos tura
Ġ5 1
Ġnom enament
ĠR ich
oc k
9 1
Ġrecor re
Ġad vers
ent o
as pecte
t v
Ġreun eix
is is
Ġque ixes
M I
ass o
Ġimpres siÃ³
ro v
po ques
C i
Ġan t
Ġa si
Ġfot Ã²graf
Ġe dats
ĠRic ard
Ġlim itar
Ġt oler
ĠCal if
Ġreser ves
Ġinvesti gacions
Ġcontempor Ãłnia
f eix
Ġproced ent
Ġpor c
Ġperme tin
Ġdec oraciÃ³
ĠJ ERC
Ġconvi da
ĠC ro
Ġhum anes
ĠD ades
Ġpar ades
cion ista
ĠCov id
Ġmanip ulaciÃ³
Ġr urals
f it
Ġcor da
Ġa ustr
Ġg a
Ġcompar ar
Ġespecial istes
Ġp Ã¨l
ĠPre gun
Ġman ual
of Ã²bia
Ġj ub
Ġs als
Ġreflex ions
egu ts
Ġcap Ã§al
ĠCor ona
ĠS anc
p iga
ĠN ingÃº
ĠPa pa
ĠEsper em
Igual ada
Ġc up
Ġin evi
ĠX III
Ġcated rÃłtic
ĠVil ad
ci di
Ã²r nia
Ġaclar ir
Ġmes a
Ġrefer ir
Ġg an
Ġpor ter
iciÃ³ s
ĠS ag
Ġent usias
ĠestratÃ¨ gic
Ġsucce ir
ĠC ri
qu an
Ġ197 9
ui da
Ġv Ã©n
ĠB ru
Ġneg at
ĠCo operaciÃ³
Ġ197 8
vol ta
ĠridÃŃc ul
Ġdiscurs os
Ġbarcelon ÃŃ
arr el
ĠC erc
Ġcol les
ĠBert ran
Ġab ordar
OS T
ol is
Ġex pedi
n eu
Ġcap ÃŃtols
ad jud
Ġde ure
Ġress Ã²
ul ades
Ġimp ed
ĠCo rea
u tat
Ġcompeti tivitat
Ġtrans cor
Ġseny era
Ġinf Ãłncia
ĠE D
assass inat
Ġde ures
Ġtrans met
Ġcristi ana
ĠEn llaÃ§
a h
ĠIn icia
Ġcarre gat
ĠBarber Ãł
ĠEl la
Ġsorti rÃł
e ines
Ġesc enes
Ġpen es
ĠmÃ¨ dica
u k
eb a
al ter
nacio digital
ĠTrob ada
ĠGe orge
Ġed itat
Ġinfra estructura
Ġsos pit
em issiÃ³
Ġp esc
u e
Ġass ess
Ġdon em
Ġg audi
Ġ" ,
ĠD emÃł
Ġpresump te
Ġinf ant
en ada
Ġpre visions
Ġd Ã©u
Ġru mb
M ENT
Ġservir Ãł
Ġdepen ent
ĠF ol
Ġben vinguda
F C
ĠpÃ¨rdu es
Ġindepend entment
Ġsal va
Ġsupos adament
ad quisiciÃ³
ĠtÃŃ pic
ĠPal es
ĠacadÃ¨m ica
Ġag ent
Ġsindic al
in ers
Ġfla men
ĠIr landa
abs tenciÃ³
ĠX Ãł
l Ã²
Ġf ia
ĠBala guer
ĠTa ula
ĠC li
cion istes
me d
Ġun itÃłria
M B
Ġd urÃł
Ġconeix ia
ĠgrÃł fica
Ġconc edir
ÃŃ gen
ig i
A uditori
Ġcent rat
ĠCatal uÃ±a
Ġengan x
u z
Ġesper it
of f
ĠVal encia
Ġtrob arÃłs
Ġaprof itat
ĠD OGC
Ġfoc us
Ġe ficient
ĠD ivers
ĠJ ames
Ġen via
ciÃ³ s
ĠSu Ã¨cia
ĠMa ciÃł
Ġtractament s
Ã²m etre
Ġcre mar
ul ls
" ...
Ġmet Ãłl
Ġentren ador
Es ports
Ġsenti ts
ser vatori
Ø §
Ġh ol
ash ington
or o
Ġpresid ents
Ġ197 0
ĠB anyoles
Ġter rat
Ġpes ar
el d
Ar xiu
ĠE duca
gra m
Ġacus acions
Ġreper tori
Ġdivid ir
Ġt ria
id el
Ġcol umna
Ġapar egut
Ġacud ir
Ġend ins
Ġres ca
Ġps eu
ĠMos c
as tia
Ġpor tant
CI ONS
Ġconfigu raciÃ³
Ġefec tius
queb is
ĠEl ls
Ġpo guessin
et Ãłria
ener aciÃ³
Ġque ixa
S E
Ġrom andre
Ö ¸
Ġbomb ers
Ġacab i
indi vid
p reu
An d
Ġper p
Ġcol oni
Ö ¼
Ġpedag Ã²g
Ġidenti ficaciÃ³
ing o
Ġopera tiu
no ia
Ġmul ta
ÃŃ p
inter pre
Ġservid or
Es t
Ġvincul ats
Ġnoti cia
Ġide olÃ²gica
Ġpren en
Ġderi vats
Ġurb ans
Ġliber al
ĠCons ul
Ġpre cis
lel ament
Ġseny als
Ġanti cip
Ġcont ent
ven da
ĠBen et
ro vis
ex cel
iÃ³ dico
Ãł us
Ñ Ģ
lo ga
ĠEuro pe
Ġpeti cions
Ġcurs es
Ġcon questa
199 9
S om
asc o
bl anc
Ġcon fec
ĠE ug
Ġcres cut
Ġcaracter ÃŃstica
Ġvic tÃ²ries
Ġrealitz ats
Ġser em
Emp ordÃł
ĠEdu ard
Ġfra u
B L
Ġcur rÃŃcul
Ġsal tar
Ġsegu im
ĠU IB
ĠCal af
oru ega
Ġcontr ols
av is
emp la
ĠparÃł metres
Ġ á¼
Ġh otels
Ġproduc tors
Ġ om
Ã¨ dit
Ġest endre
at ra
ĠPro vin
ĠC AR
Ġcom Ã¨dia
per o
ĠM undo
Ġex ca
9 4
estat ut
Ġc ementiri
AAAA AAAA
Ġmas ia
Ġesp eren
Ġha ja
Ġf usiÃ³
Ġen for
ĠOlÃŃmp ics
Ġta x
Ġord enar
Ġfor at
Ġcomp ost
N C
Ġcomp ortar
land Ã¨s
al d
Ġlle ure
ant es
Ġf ic
Ġcre di
ĠS and
r ons
p rim
trac ciÃ³
h y
Ãłs tics
Ġso us
Ġfor tes
ass et
h h
Ġ ran
Ġfil es
ĠL ou
Ġc oc
200 2
im e
ĠPass eig
i tiva
Ã²s of
Ġra cisme
in fer
Ġestim at
Ġplan tar
aut op
Ġm urs
co i
Ġcontemp la
Ġt ribu
Ġfran ja
es tu
ĠnecessÃłria ment
ĠH or
Ġofer int
d ores
Ġnuc lis
A li
Ġdeci di
Ġimmedi at
Ġdestin ada
ĠMa ig
esta va
ca u
onal d
Ġesc ales
Ġesc oc
Ġxerra des
c Ãł
ĠÃłl bum
Ġinde fin
ĠCat ed
ĠVi ves
Ġprofun dament
Ġap el
Ġciutad anes
Ġfemin ista
le gacions
ĠhistÃ² riques
Ġaf avoreix
Ġtorn em
ĠVer da
Ġmetod ologia
ĠL oc
Ġes cap
ĠAr ran
Ġfru its
ĠTom Ãłs
ĠCons id
Ġma pes
r osa
itx ell
dem ocrÃł
y l
Ġreivindica cions
rot xa
e jat
Ġtres or
ĠC ity
on ga
t ÃŃs
Ġacc ent
Ġbas cos
Ġcostu ms
Ġbal cÃ³
Ġv ocal
Ġsug g
Ï Ģ
Ġfut urs
Ġx icot
ĠAqu ell
ba ma
ĠAn dalusia
ĠEsc Ã²cia
cion ades
ĠÂ ¡
Ġc ust
Ġexplic ant
Ġconc rets
f u
Ġrenov ar
Ġfol k
gra u
r ug
Ġjus ta
ĠQu atre
rÃł c
Ġtur ÃŃstics
ĠAl f
ĠMos tra
Ġun eix
ĠEn titat
ĠmÃł gia
Ġpa vellÃ³
ĠCar ta
ĠÃº tils
lec tuals
is e
ĠCamb rils
Ġmagn ÃŃfic
Ġtitular itat
ĠSar riÃł
Ġlegisla tiu
ES TA
o us
Ġconnec tar
ĠR oses
Ġdef en
Ġvinc ulat
elec cions
entren ador
Ġpu guem
ĠR esta
Ġinter ac
Ġav al
Ġfund ada
id at
efici Ã¨ncia
Ġsitu ats
Ġdeix e
Ġlliure ment
Ġc Ã²mic
Ġgam ma
estudi ant
ĠJ on
Ġvege taciÃ³
ĠRe voluciÃ³
i tiu
Ġsu au
ĠEx pl
ĠDec laraciÃ³
Ġcoincid ir
Ġlit oral
ĠÃ¨x its
P C
Ġ- >
Ġexerci cis
ÃĢ S
Ġatemp tats
ĠCerd anya
ĠI gu
Ġ193 9
Ġan eu
Ġcic les
Ġcul p
Ġprepar ant
catal unya
Ġju guen
Ġta ul
ĠE ul
Ġtruc ar
EI X
Ġ7 00
Ġinter can
Ġpers ecuciÃ³
f ix
Ġinforma tiu
Ġde mag
ĠMarc h
Ġ198 4
Ġtar onja
gued Ãł
ha uran
Ġar bit
Ãºr cia
T O
ARC EL
m ira
à ¤
Ġb ac
Ġse tanta
ci da
ĠGl ob
Ġdon ada
tra ciÃ³
Ġcomplex itat
Ġseri osament
cessi bilitat
Ġlleug erament
Ġcatal unya
Ġimm er
us uaris
Ġinter ns
Ġ5 4
ĠSol id
Ġaut Ã²ct
ĠXV II
Ġar c
u le
ĠTot hom
ĠLl ic
ĠPro duc
ĠX IV
Ġcon gel
ĠMitj ans
Ġcompareixen Ã§a
if e
Ġcomprom Ã¨s
Ġ6 8
Ġec os
ĠPrim Ãłria
g re
C UP
Ġpl Ãłn
Ġj ubi
ĠPob la
r Ã¡
Ġrealitz ant
ac ompanya
Ġsupervi vÃ¨ncia
Ġluc re
ĠUniversi tari
ĠÃŃn tegra
ĠQu ins
B aix
Ġllic Ã¨ncies
Ġfren ar
Ġsus pendre
Ġaut oc
Ġc ed
Ġposi tius
Ġperson alitats
f al
A noia
Os ona
ĠC AT
Ġutilitz ada
Ġcomp ten
ĠDi ego
ĠsÃł piga
er ror
Ġconstant ment
Ġac tivament
Ġofer t
en ques
o z
ĠB CN
cra Ã¯na
urs os
Ġest os
tim s
Ġepis odis
f ort
Ġs umen
Ġser ra
ĠK i
Ġdi eta
Ġaband onat
ĠBen estar
Ġper qu
k ar
min es
Ġdirec tius
Ġfix at
Ġrespos t
OR M
Ġme tal
Ġ5 6
ĠPP CC
ĠSi mp
us ar
Ġins isteix
Ġmascul ÃŃ
Ġfor estal
Ġrecep tes
ĠGal ÃŃcia
ĠL ingÃ¼ÃŃstica
Ġcogn oms
Ġfin alitats
Ãº l
ti tats
g s
Ġcaracter itza
rob a
glÃ©s ies
g il
ol ina
Ġrevis ar
op er
ut o
Ġdesg rÃłcia
b en
4 00
Ġjug ada
Ġpreser var
at emp
Ġsup erm
Ġret rans
ic e
Ġesc Ã¨n
Ġpres sion
Ġpl ur
Ġsal Ã³
ĠR aval
clo a
Ġmul tina
es ter
ĠS ÃŃn
Ñ ĥ
Ġprior itats
Ġimp er
Ġav ent
ĠAN Y
ĠCerd anyola
p al
espe cial
Ġdi ta
os iÃ³
Ġordin adors
ĠI X
In f
us s
Ġsom nis
Ġfortal esa
ig s
Ġpreten en
ĠJ ord
9 6
ĠH oms
h ero
os altres
e k
Ġleg ÃŃtim
Ġutilitz ats
Ġassign atures
Ġcomerci ants
~ ~
dis cipl
Ġb eca
200 5
Ġdes fer
Ġbomb a
ĠGaud ÃŃ
Ġagra daria
inver siÃ³
Ġbron ze
Ġquad res
Ġdu u
Ġsepar at
Ġvol d
Ġesca par
ĠM ich
H isenda
Ġinteg rants
Ġt Ã¨r
Ġprop ici
Ġp all
Ġrebut ja
Ġsor prendre
Ġadre Ã§a
on ista
s una
m era
Ġc obreix
Ġcatal Ã¡n
ĠSegu rament
Ġpass aria
u mb
Ġcerves a
Ġloc alitats
Ġtanc ats
ciona ment
Ġtecn olÃ²gica
O lot
c rim
ress ol
vis ion
ili p
c uls
UN YA
Ġcas ti
Ġsimpa titz
assign atura
Ġcredi bilitat
Ã²m ens
Ġobli gats
PS C
Ġcompar teixen
Ġp ota
ĠW ashington
a gaf
im atges
... "
Ġreligi osos
Ġport Ãł
Ġvul guis
tr ina
Ġrob atori
c ens
ĠM Ã²nica
Ġgesti ona
Ġdivul gaciÃ³
Ġden Ãºncies
ĠJ ard
cri ure
I RE
Ġdo tar
ĠG all
ĠPs ic
Ġdispos icions
ĠhÃłb its
Ġinter loc
Ġv ells
ĠVis ca
Ġe vent
Ġint ents
ĠCiu dad
ĠMil Ãł
Ġmaquin Ãłria
Ġali ats
ĠMic hael
Ġdespla Ã§a
elecomun icacions
Ġrebut jat
ĠautÃ¨n tic
Ġinstitu ts
Ġpres on
Ġrec ollit
til les
Ġlid erar
ĠB ut
Ġjard ins
ĠeconÃ²mica ment
i onal
ĠN IF
com un
Ġca Ã§a
Ġrepublic ana
Ġapun ten
Ġll istat
Ġad mÃ¨s
Ġab ast
ĠPS PV
Ġs int
ĠEspe cial
Ġdepend Ã¨ncies
Ñī Ðħ
as sion
ĠS E
Ġconsell eria
ĠW i
cis tes
Ġfil Ã²sof
Ġrecord en
Ãºs tries
Ġesp osa
Ġcompon ent
inter essa
Ġcom tat
Ġpais atges
Ġaix i
ob tenciÃ³
y d
Ġgu arda
Ġfa ma
Ġvincul ades
ĠElec toral
Ġac tivistes
oca ment
inter net
ss es
Ġajud en
Ġpec uli
Ġprovin cial
ĠT aller
Ġexpos at
apro f
v ÃŃ
Ġ ),
Ġg imn
Ġpor ts
Ġbil ingÃ¼
Ãłnim a
Ġcompeti cions
Ġretar d
Ġav or
Ġofer irÃł
arr y
Ġdig ne
ĠLlo ret
Ġaconsegu int
Ġfun cional
Ġ197 7
Ġconduc ta
Ġentre vis
Ġpu ga
Ġperd Ã³
Ġreper c
M an
Ġenten em
Ġco ca
ĠIgu alment
Ġ8 5
ĠD ata
Ġmin istres
Ġpropor ciÃ³
Ġmagn itud
ĠE di
enem ic
Ġsi mbol
Ġdismin uciÃ³
Ġreme i
Ġf ita
ĠSo vi
Ġfavora bles
ĠE C
Ġfam ilia
Ġres tr
ĠfÃ²r ums
Ġbat eria
Ġpren ent
Ġem ma
p ats
tori al
Ġgeni al
dipu tat
Ġsenti m
Ġcontac tar
Ġpa guen
lec cions
Ġen va
Ġll ars
ost Ã©
Ġinaugu rar
Ġconsolid aciÃ³
ĠMosc ou
Ġrectan gular
Ġguany adora
B ar
Ġguitar ra
ĠM is
Ġmedia ciÃ³
exc lusiÃ³
Ġdelin qÃ¼
arc als
ass at
Ġcomprom et
ĠcÃºp ula
Ġameric Ãł
Ġobligat ori
ur Ãłs
Ġgener en
Ġelim inat
Ġja zz
Ġprec ari
Ġprepar ats
Ġconsidera ble
Ġinvesti gar
Ġmen Ãº
Ãł tiques
Ġqueda va
Ġesc or
a plicar
Ġ9 5
... ,
Ã² rics
Ġll anÃ§a
Ġin Ãº
emp at
Ġfanta s
om an
ĠI gnasi
re tament
% ).
Ġterror istes
ĠS eria
ĠT ard
Ġc ort
Ġll ums
Ġ198 6
Ġlater al
ĠvÃ©n en
Ġdu en
k in
Ġsum at
ĠCoordin adora
Ar gentina
Ġclar s
arc ar
ĠC L
fon ia
ĠMon cloa
int el
ĠAl onso
ire ia
Ġcalc ula
Ġverm ella
Ġenf ons
ĠNo v
Ġcad enes
Ġfer it
g Ã¨ncies
ĠR em
Ġrob ar
ĠO ber
ĠOr tega
ĠA par
Ġconcep ciÃ³
Ġcer cle
Ġinc lusiÃ³
Ġven tall
Ġdestin ades
Ã²p era
Ġfitx er
lici tant
Ġmenti des
ĠCiutad ella
ĠV ell
Ġespor tistes
ĠJuli Ãł
Ġd Ã©
ĠCl ÃŃn
fi qui
Ġaprof ita
uix art
Ġform ular
Ġpess etes
reg aciÃ³
Ġimpos at
ÃŃ eu
- )
Ġass et
Ġinqui etu
Ġb rasil
An na
Ġdisf ru
est elada
ĠMor eno
it enci
Ġcl o
por tiu
, ,
Ġestat uts
Ġgas tronomia
Ġhec tÃł
Ġbon ica
ĠmÃ¨ dic
Ġrespec tu
ĠP V
Ġferro car
Ġassump tes
Ġdip Ã²sit
Ġtra duir
Ġfos c
a prendre
aj us
Ġg ala
Ġre trat
ĠPer iÃ³dico
amena Ã§a
Ġa prÃ¨s
Ġceleb ren
integra ciÃ³
ĠA mp
h istori
ĠR egu
ĠDu es
Ġdetermin aciÃ³
a k
Ġdefens ant
ĠlÃŃ quid
T IC
Ġlid erat
Ġde tencions
Ġemp la
ĠDia gonal
anim als
Ġca mes
f ord
Ġmar ro
Ġt ones
ĠU Vic
Ġb ord
Ġindi quen
us es
rÃł ria
Ġalum ne
Ġtal la
Ġc Ãłs
ra q
ĠW indows
Ġarti ficial
ĠJo ana
Ġcorre dor
Ġno tar
Ġgen Ã¨tica
ali ments
Ġconvid ar
Oc tubre
Ġmon op
Ġfal tes
ment era
Ġass aig
ĠH om
Ġsig les
Ġis l
Ġger ent
IS TA
Ġre tra
H A
Ġlle gat
l Ã³
ob il
Ġposi tivament
Ġdes ena
Ġlec tures
Ġagaf at
Ġurban ÃŃstic
ĠA ten
Ġret ro
Ġviat gers
apar ell
Ġretall ada
ĠCons um
Ġpr ud
Ġtren cat
Ġpun y
Ġespa Ã±ol
Ġapar ells
Ġport em
Ġtrac tats
Ġfinanc eres
ĠPR ES
Ġelev ada
ĠA V
Ġref Ã³s
Ġvari ant
Ġve ieu
Ö °
ti quen
Ġd any
C ap
Ġins tÃłncia
Ġcoopera tiva
olÃŃ mp
r s
I Ãĵ
Ġjusti ficaciÃ³
Ġpros per
apor taciÃ³
oc h
Ġconclou re
ĠCON S
establ ir
Ġbran ca
ba o
ins tru
Ġpancar ta
Ġaplica ble
ĠSa int
ĠN it
ĠDemocrÃł tica
Ġpar cialment
Ġcad ira
Ġ198 7
Ġna tal
C ons
ĠRom eva
la ga
Ġpertany en
Ġp ra
ĠT Ãłrrega
ĠAl hora
Ġra dio
Ġenca ix
us sa
Ġr Ãłn
Ġprobl emÃłtica
ĠF uster
f at
Ġpromo cionar
ĠTo ur
Ġrem odel
M ad
erm ita
g ran
Ġconvocat Ã²ries
Ġmot ors
Ġr end
Ġsec rets
Ġass ocia
Ġassoci at
Ġgra var
Ġreflec teix
ĠY ou
Ġpaga ments
ĠestratÃ¨ gica
ĠProfes sional
or ra
Ġhab itaciÃ³
ĠT it
hom enatge
ÑīÐħ ÑīÐħ
xa ca
Ġ198 2
ĠCon ca
Ġar res
Ġassegu rarÃł
IT Z
Ġ196 0
ul o
ten iment
Ġser iÃ³s
. ).
ĠBar ri
ver siÃ³
Ġvui tanta
Ġa udi
pres siÃ³
Ġesp on
Ġt Ã¨x
Ġfu tures
Ġem ig
c ur
er ec
ĠMer itxell
ixa mple
ĠG ro
el o
ĠG emma
Ġpreveu en
Ġven ut
ĠautomÃł ticament
ĠÃłrab s
Ġprovin ents
Ã² ces
Ġdesper tar
g rup
Ġdeix arÃł
ĠðŁ İ
igual tat
cin c
Ġa ca
H e
Ġgal eria
Ġvari etats
Ġan Ã¨cd
quÃ¨ s
ĠC ient
Ġmod alitats
6 00
ĠLle Ã³
Ġsac erd
Ġconform en
Ġburges ia
di dat
erÃł pia
Ġh el
Ġautor itat
Ġex ag
Ġinc ons
Ġc Ã¨n
Ġdesenvolup en
im o
mos fera
ĠGand ia
ĠN ob
Ġsist emÃłtica
s car
Ġcontinu ada
f t
Ġgran d
ĠAm ics
r any
Ġm exic
Ġinvas iÃ³
ĠPD e
im on
Ġpitj ors
ĠMau lets
Ġsor tint
Ġc itat
Ġcol Ã²nia
Ġpac tat
ĠconstruÃ¯ da
Ġc Ã²n
id entitat
Ġ7 2
Ġinvestig ador
Ġremarc ar
c hi
Ġ9 3
O CI
Ġdispu ta
def els
T en
Ġa gl
Ġmis sa
Ġro ca
Ġtraves sa
Ġan ualment
ĠT emps
Ġincid ents
ti en
Ġacoll irÃł
Ġt Ã²p
Ġpron unciar
Ġincorpor at
ĠMar atÃ³
A fers
Ġcon fer
âĢĵ -
ass ump
camp ada
Ġterra ssa
H ab
Ġcons ig
ti ve
cid entals
Ġren Ãºncia
Ġefec tivament
ĠS is
ĠT ec
Ġpa gat
Ġmercad eries
Ġpuntu aciÃ³
Ġcomb ina
8 00
espanyol isme
Ġcapi tals
um entaciÃ³
ots er
Ġpublic ats
p is
x C
] ,
Ġv enc
ĠEm ili
Ġes tant
arra f
Ġreligi oses
Ġdisponi bilitat
v ica
Ġfe bles
Ġesc al
Ġexecu tar
Ġinter nes
ĠPolit Ã¨cnica
Ġreac cions
ĠMont juÃ¯c
ĠCATAL UNYA
Ġani rem
Ġator ga
Ġsat Ã¨l
Ġrespec tius
Ġrod ona
Ġdi Ãł
Ġexper t
era ble
ĠPac o
ad res
Ġpre venir
actu res
Ġtamb e
Ġti o
mad ura
Ġfona ments
ĠM ot
Ġin tu
Ġdi guin
w in
ofer ir
Ġlimita cions
Ġ5 7
Ġfac ultat
ci ent
ĠcontÃŃn ua
Ġsolid Ãłria
ĠR E
ĠE gipte
apro xim
Ġsignat ures
Ġinfer iors
Ġreconegu ts
Ġplante jament
ĠAnd rÃ©s
ĠA y
In formaciÃ³
Ġelec ciÃ³
ta tiu
Ġcoher Ã¨ncia
V OC
Ġdoctor at
Ġcom etre
Ġloc alitzar
omp liment
ĠpÃł tria
ĠXi le
ent ena
ĠCol la
Ġestat unid
audi Ã¨ncia
til l
Ġllui tant
Ġpregun to
Ġconc lÃ²s
Ci U
Ġac ces
Ġ198 8
Ġpu e
ĠL ec
Ġrus sa
Ġparticipar an
Ġlegitim itat
ĠPers onal
b aix
-------- ----
am o
ori taris
Ġamp lia
Ġint enten
Ġcol umnes
am Ã³s
ĠRe f
Ġfer m
Ġra Ã§a
Ġsan ciÃ³
ĠRep res
Ġ ut
Ġinform Ãłtica
ĠPN B
Ġavalu ar
Ġlli gat
Ġdir Ã©
enta des
ĠT ÃŃtol
ili ari
Ġins tant
ĠDina marca
S er
Ġmedi Ãłtica
Ġcerim Ã²nia
ĠCas tro
ĠmÃłr queting
Seg ons
end ran
Ġp ist
en z
Ġfor es
ĠPales tina
A G
Ġsacri fici
v ents
ĠEn rique
j ug
gra ci
ĠMo viment
eny es
gl ada
c la
ĠÃŃn dex
Ġajud at
Ġ !
ur Ã³
Ġdes ert
Ġcas al
Ġauton Ã²mica
ĠAss emblea
Ġparticular ment
Ġllic enci
es pais
ĠMonts e
Ġsal aris
Ġn eb
Ġtra Ã§at
Ġdestin ar
ej ant
Ġexemp lar
Ġ198 5
Ġequipa ment
ĠDomÃ¨n ech
ĠA udiovis
ĠM Ãºrcia
Ġcl Ãłus
Ã©s sim
Ġconten idors
Ġduplic at
Ġre marca
M ol
ĠautÃ²n oms
ĠLic eu
Ġpresid it
Ġval ent
Ġestal vi
Ġviol enta
Ġmarc ada
Ã¨s ties
Ġm Ãłs
Ġma m
ĠCas as
ĠBar ris
ĠCer vera
Ġleg alment
Ġte ories
Ġcoincid eix
bl oc
Ġles iÃ³
i er
ĠPar e
ÃŃc ules
Ġcri dat
Ġtras p
Ġb y
Ġfin alitz
ĠT rin
Ta mbÃ©
Ġcomple xa
si es
li ta
ĠP RE
Ġmediter rani
Ġal Ã§ada
uc s
Ex ecutiu
Ġreci cl
Ġpil ars
Ġpatr onal
te b
ARCEL ONA
Ġpen et
ĠPolÃŃ tiques
AR I
Ġacab ada
ex tinciÃ³
Ġsens acions
ĠM estre
lle u
Ġenerg Ã¨tic
ĠX II
ĠAn dre
Ġrepar aciÃ³
Ġinvol uc
ur b
ĠF ort
Ġll una
l lament
Ġcat Ã²lica
Ġdetec tat
Ġ5 3
Ġl ent
exp ansiÃ³
Ġqu otes
Ġexp li
ĠE X
r Ã³s
Ġform atge
ĠParti cipaciÃ³
ted ra
× Ļ
Ġcul tiu
ven tari
Ġpre judi
Ġdedi quen
ĠRegid oria
ig en
Ġ 00
Ġcapital ista
di vers
om Ã²bil
ĠIndustri al
eg ra
Ġcris is
Ġfant Ãłstic
Ġpa quet
ĠÃ¨ poques
Ġt era
Ġin ex
A F
t op
ĠF elici
ĠEmp resa
ĠRib a
leg at
ĠPat ri
Ġrecup erat
Ġrepres entat
ĠcÃ² mp
Ġins ults
ĠB au
ĠQu alitat
Ġconta gi
labor at
Ġad vocats
Ġllarg s
ad ministra
Ġsugg eri
Ġdes astre
Ġhist oria
Ġt ort
Ġpass ades
ĠW e
c ules
Ġconcre tar
Ġteu a
Ġvia bilitat
Ġ rang
Ġb ossa
ti ci
Ġve ta
V D
ĠH ospital
Ġban ca
Ġmal alt
ro quial
Ġdocumen tals
Ġobli gaciÃ³
ĠCalif Ã²rnia
Ã² mbia
Ġimm ensa
D on
R IA
ad em
Ġsu fra
Ġlater als
vi Ãł
Ġ198 3
ĠLle tres
ir at
A f
Ġca ut
Ġinter posar
ĠM ireia
Ġ olÃŃmp
bl ogs
Ġanim ar
all o
tra da
ab ona
cion isme
ĠR ab
Ġpens es
ĠC EI
Ġepis odi
ac um
Ġ20 21
ĠEr nest
Ġcre ia
ĠGu ia
Ġproduc tor
z er
Ġestric tament
Ġtal s
Ġec olÃ²gica
Ġrel ats
Ġcoordin adora
Ã§ ol
Ġvesti ts
Ġdescob riment
Ġatrac tiu
Ġbr ut
Ġmot o
ol les
ĠAn tic
Ġpages os
ĠInicia tiva
Ġfin alitzat
in era
Ġderro tar
Ãł pia
ĠautÃ¨n tica
oparl ant
E ivissa
OR D
Ġconser vador
Ġro dal
Es port
Ã £
ĠEs tan
ĠPar k
Ġs es
er ats
Ġmal estar
egu es
Ġbar s
ĠUP F
Ġacus a
u aciÃ³
direc tor
Ã¯ ns
Ġ197 6
Ġsimp li
Ġtrans fer
ĠPS M
entre ga
ĠG reg
ĠCru z
ar ren
Ġprim a
ag ressiÃ³
Ġend ur
Ġespecial ista
w ay
utilitz en
Ġter Ã§
ĠM it
Ġja pon
Ġcavall s
Ġcer Ãłmica
eb ra
ica ments
Ġad metre
Ġac cidents
ĠUP C
ĠdemocrÃł tics
Ġn or
Ġcatalan oparlants
ĠT ens
d ona
ĠSosten ibilitat
edi da
Ġqu ir
Ġsupos ada
Ġdim i
Ġdescob ri
Ġs n
leg als
Ġob vi
ĠGran ada
Ġsi guen
f ac
Al ta
ti ficat
Ġidenti ficat
Ġconf ia
Ġguard ar
an k
Ġinc enti
ĠPon ent
Ġpropos en
Ġinaugu rat
omp le
ĠAl biol
Ġrecla men
Ġge ogrÃłfica
h ÃŃ
Ġsubjec tes
Ġpa tint
ad ura
r uc
ER S
Ġpres sa
Ġpla ca
Ġnoti ficaciÃ³
Ġalg o
Ġconstitu eixen
Ġmun di
Ar tur
. Â»
m ari
h ad
Ġm Ãłn
Ġrepresenta cions
Ġdes mun
ert z
Ġrecom ano
Ġsig nes
Ġesmen tats
ang le
em i
Ġfin ances
Ġcompleix en
Ġesp anya
Ġprec edents
mÃł tics
Ġrela cionar
Ġextre ms
Ġestim ar
ĠAl ba
Ġsenz illament
ĠS ort
Ġ Ã²b
Ġadministra tius
j an
Ġcor on
Ġdin astia
Ġrec al
ĠMed ia
Ġing redients
T M
ĠcomenÃ§ Ãł
Ġmos tr
ĠA ir
eri al
Ġadap taciÃ³
ĠcurrÃŃcul um
ĠprÃłc tic
ĠBa y
ĠðŁİ Ĺ
ig h
ĠH ong
Ġcatalan istes
Ã¨ p
Ġsignifica tiu
Ġradic als
ĠG ib
ĠMat eu
oca tala
ĠTur ull
Ãłl isis
int ent
Ġvesp rada
Ãłr qu
OO OO
od o
Ġesca u
Ġr uÃ¯
Ġpun tual
activ ar
pp le
av ent
Ġimagin aciÃ³
Ġencar regar
Ġta bac
Ġs ostÃ©
Ġmal es
Ġdisc rep
Ġpre dic
Ġfals a
ĠT erc
encar regat
ĠparÃł graf
ci osa
at ro
ur n
A lex
Ġdi vi
Ġperfec ta
m enti
Ġentre ga
ĠCastell s
no va
Ġ197 5
Ġd avall
Ġdon aran
Ġh Ãł
Ġpo etes
ĠR ull
Ġtradi cionalment
Ġr osa
Ġpin tar
ac ompany
Ġestabl ertes
ĠMan ifes
Ġvaria ble
Ġen der
Ġperill Ã³s
liber tat
Jo an
Ġcogn om
Ġes tils
ĠA ugu
ĠM anc
ertes a
tor ns
Ġtecn olÃ²gic
pres ident
Ġlamenta ble
Ã±o z
Ġexc usa
ĠTo tal
ĠIgual ada
Ġgrec s
Ġadre Ã§at
gu erra
Ġestrang era
Ġpar les
R I
ĠB atx
he im
Ġde tin
Ġconsider em
Ġcrim inal
c ats
p ed
j arÃł
Ġpand Ã¨mia
enci alment
l ades
ac triu
lum inaciÃ³
ĠI S
Ġll Ãłstima
ran ces
Ġconduc tors
ĠVi ena
Ġoc ci
Ġperspec tives
Ġc ig
Or questra
rÃŃ tica
: )
Ġimp re
Ġpeix os
Ġtras pass
ĠgÃ¨n eres
ĠCent res
inc esa
Ġpar li
Ġdespla Ã§ament
man n
Ġtra jecte
ĠT rÃł
Ġm ari
Ġem iss
Ġs emes
ĠD eb
Ġconser ven
impor tant
Ġpaci Ã¨ncia
Ġha bilitat
tat es
Ġreb uts
Ġesper anÃ§a
Ġcoher ent
l Ã¨tic
ur gia
Ġa fer
ĠChar les
B I
. '
Ġam ar
inf ra
Ġtroba ven
Ġg rega
V a
Ġprof it
ĠIn form
ĠD al
ad is
ĠR io
Ġsobiran isme
pl u
Ġsignifica tiva
Ġte Ã²rica
inten tar
ĠperiÃ² dica
iss in
ros s
rÃł cies
O p
En ric
inf ant
Ġ7 8
Ġrellev Ãłncia
Ġdeman em
Ġbel ga
Ġfit xa
Ġavan tatge
ili ars
T T
Ġac triu
Ġabra Ã§ada
us sions
ĠCastell defels
ĠH oll
and er
ho w
ass essorament
Ġpl uges
Ġcatalan itat
Ġcastell ans
Ġes tes
Ġess encials
Ã¯ ment
Ġass essor
ĠH el
Ġhi per
Ġfinanc ers
Ġadjun t
pec ciÃ³
rig ada
Ġfre da
Ġpu jat
Ġator gar
ĠÃģlvar ez
ĠP asc
ĠPDe CAT
ed ic
hi p
Ġib n
Ġdesenvolup ant
Ġdesit ja
ĠCD R
Ġret rob
fer ent
Ġmedi Ãłtic
Ġmajor itari
Ġproteg it
Ob servatori
Ġcontra st
ĠC uixart
Ġllen Ã§ar
Ġsub si
ens es
Ġcons tar
Ġrell otge
Ġcomp licitat
ĠPi quÃ©
er no
Ġri vals
ĠA j
la v
Ġrefer it
Ġsatis fer
ĠSal ou
rom p
Ġdetal lat
ti z
V all
ĠConsell er
ĠMus ic
Ġfarmac Ã¨u
ĠT ir
Ã± as
Ġori entaciÃ³
Ġestudi at
ĠS itu
ompl ir
CI ON
ro gen
al ia
Ġdescomp te
ĠllanÃ§ at
Ġafec tada
Ġapro va
Ġinforma tius
Ġconten en
Ġcomun es
ĠBar tom
Ġurban itzaciÃ³
ri ts
Ġ 01
Ġfesti vals
Ġtin guÃ©
Ġsor pres
Ġofer im
i tant
Ġmens ual
** **
ĠE ivissa
ĠGar rotxa
ĠV el
ĠUn ida
Ġla c
Ġll ur
Ġdescar ta
Ġcas c
Ġarros seg
Ġdeb ut
f ora
M Ã©s
H o
Ġfrag ments
ĠQu er
Ġinstitu cionals
Ġexpres sions
ĠSergi o
Ġcient ÃŃfiques
Ġitali ans
ĠcapÃ§al era
Ġadministra tives
R ec
ori da
ĠF i
Ġ5 8
ĠDirec tiva
Ġvig Ã¨ncia
Ġper cep
Or dre
Ġtr entena
Ġlleg eix
Ġcont ribuciÃ³
Ġdispar ar
AD OR
Ġinc lus
ri Ã³
Ġs ons
Ġsalari al
b arcelona
ĠGarri ga
Ġdescon eix
in ista
ĠW il
Ġactu at
Ġredu Ã¯da
Ġx er
Ġcreu ar
g ons
rim adas
Ġca va
ĠMari o
Ġmitj anes
ac ho
ĠhectÃł rees
c ent
Ġfron tal
Ġb eure
ĠMu Ã±oz
Ġfa una
li ga
mar t
ĠO bres
Ġex istÃ¨ncia
Ã¨s tia
ĠlingÃ¼ ÃŃstics
Ġcad Ãł
ĠVir g
Ġdarrera ment
Ġes qui
Ġind ret
ot erÃłpia
Ġdescon egut
Ġpreci siÃ³
Ġpres sions
Ġec olog
Ġimmer siÃ³
ĠproveÃ¯ dors
b u
Ġest Ã¡
ĠâĢ ĭ
Ġregal ar
Ġgiron ines
Ġsubs tÃłncies
Ġcomiss aria
ÃĴ mnium
Ġan dor
Ġh ones
Ġpon Ã¨ncia
Ġensenya ments
ĠV AL
atemp tat
ĠConc retament
ĠDi jous
ĠavanÃ§ ada
Ãłm ens
Ġafir men
Ġne ur
Ġcal Ã§
ĠM ÃīS
Ġex istir
ĠAra gÃ³
Ġpl us
Ġex ten
ĠRec ursos
199 2
ĠMar s
Ġimp edeix
Ġfesti us
Ġdol Ã§a
ĠDes ta
ros oft
ĠM ul
ĠY o
Ġ198 1
ID A
Ġab ril
Ġpos ava
ĠAt Ã¨s
ĠTV E
ĠF A
Ġ9 9
ĠtÃºn el
ofer eix
ed ad
ĠSols ona
Ġob tinguts
Ġautor itzaciÃ³
ĠFor mentera
ex tra
Ġes go
F a
tan es
Ġrestric cions
C iu
Ġcob ert
ĠXÃł tiva
Ġober tament
ig ma
Ġportu guÃ¨s
Ġmi rac
Ġfuncion en
Ġaven Ã§os
O riol
Ġth at
Ġs af
uÃ¯ da
E A
Ġret ribu
Ġcu id
Ġex tern
Ġcob ra
ĠBra va
i ana
Ã² loga
ĠacadÃ¨m ics
ĠCard ona
Ġper di
E X
Ġaf ron
Ġve urÃł
anim al
Ġcal ma
ĠBartom eu
Ġcas ualitat
t ots
d ra
Ġsupos en
Ġapar egu
Ġem marc
Un itat
ĠCon trol
Ġmer can
b ona
rac ocatala
Ġparticipa tiu
Ġass essorament
Ġb ull
z an
IC S
Ġfor Ã§ar
Ġvi vien
Ġpass es
ĠMol ins
Ġdo taciÃ³
ĠEcon Ã²mica
organitz ar
Ġexplica va
ĠF ill
Ġflo ta
l let
Ã ģ
Ġass emblees
rup aciÃ³
equipa ment
t ols
Ġex teriors
ĠS ur
ĠMarg ari
ĠE c
Ġdirig ides
Ġjubi laciÃ³
aix ec
ĠN oruega
Ġinscri ure
ĠB and
Ġgen oci
Ġcomiss ari
Ġescol tat
h at
Ġcal gui
Ġ( +
Ġass ab
Ġval u
ĠS ta
ĠmÃ¨ri t
EP C
Ġbaix at
ent renament
Ġin ves
d ols
Ġcarb oni
Ġfores tals
Ġdiscipl ines
Ġnom enar
ĠDep or
ĠT all
Ġprom esa
an ge
Ġfal ten
Ġangles os
Ġag red
an na
ve z
Ġub icat
Ġestr ena
ĠAl cal
Ġcontempor ani
f am
ĠR econ
Ġredu eix
Ġrec op
Ġav aluaciÃ³
ad ona
Ġpeculi ar
Ã¨l ix
Ġemma gatzem
Ġset ge
ĠSeg arra
Ġinter ven
Ãł cid
ĠTex t
ng els
ĠN otÃŃcies
Ġri ca
Ġjun tes
Ġapro pi
ĠC uri
Ġfal la
Jos ep
Ġdomin ant
ur banisme
Ġcom od
Ġrela x
que i
!! !!!
AM B
Ġenreg is
Ġameric ans
Ġsubs cripciÃ³
Ġbale ar
Ġsimul tÃłnia
ĠV iu
Ġcomplex os
Ġde via
Ġc all
ĠE va
Ġun it
An glaterra
Ġdisf ress
Ġselec cions
ĠF ÃŃsica
Ġpres es
Ġdifer encia
ac omi
Ġperfil s
ĠCol Ã²mbia
ĠCons ulta
ĠD o
V ila
Ġreb uda
ĠF es
accep taciÃ³
oc asiÃ³
ĠfreqÃ¼ ents
acus aciÃ³
Ġf actures
ĠMob ilitat
ĠclÃŃn ica
Ġguard Ã³
ĠC ob
Ã² tics
p ur
ĠCEI P
Ġcont ents
ĠnÃºvol s
Ġactu en
Ġmagis trat
Ġproc edir
Ġtomb a
ĠCom par
ĠCo opera
pl an
Ġconc ed
ĠRich ard
Ġvol ums
Ġreb rÃł
Ġpublic ades
Ġmes tra
os sos
Ġap assion
ĠL is
enÃ§ Ãł
Ġcor poraciÃ³
ĠLa ia
ur ban
ig ien
Ġdic cionari
Ġconsta tar
ĠV ols
Ġalterna tiu
IN A
Ãł p
ĠBil bao
P I
Ġon ada
veu re
ella ment
Ġcur ts
ĠP AS
ĠProvin cial
Ġvideoj ocs
Ġinform Ãłtic
Ġdon in
Ġmenys pre
ĠMau ri
Ġag ost
Ġpu guen
Ãłr bit
eg ant
gent ÃŃ
Ġesc oll
Ġvaria bles
Ġb ec
Ġ Ãłn
ĠmÃłxim s
ĠM ala
ĠtÃŃ p
A v
Ġcaus at
Ġfes tiu
Ã¯ s
Ġproduc cions
Ġderi vades
Es per
ÃŃgen es
Ġdisting ir
an za
Ġestad ÃŃstiques
Ġvinc ulada
ĠB atalla
& #
y al
ĠHern Ã¡ndez
Ġresol t
ĠEs pai
x iv
ĠNo guera
ER T
Ġc ors
in forma
Ġg aires
voc ada
Ãłs tiques
ĠWillia m
Ġcant Ã³
Ġsubscrip tors
qui er
ud ir
Ġator gat
Ġaudiovis uals
d els
Ġconeix er
Ġvisi bilitat
Ġpatro cin
Ġresol ucions
Ġmed icaments
on ya
ĠÂ ©
Ġavi ons
Ġhe ter
Ġtor res
M as
D T
ĠN eus
iv al
Ġdon aciÃ³
Ġdig na
O U
ÃŃ x
ĠcÃ²m ode
Ġll ogar
qu ill
Ġinici als
si ma
âĢ ľ
qu isme
us alem
ex emp
ell ar
Ġcontr ola
ĠO NG
Ġcrim in
Ġsenc era
Ġrequer eixen
ti o
ĠCatal anes
Un ivers
Ġtra g
an is
Ġapos tar
Ġcat or
Ġdestac ades
ĠTerc era
Ġnaveg ador
ĠveÃ¯ na
al iment
ĠPers ones
Ġrecoman able
Ġcons tants
Ġmer eixen
Ġadap tat
exc usa
Ġveg i
hom es
Ġcri t
tad ÃŃstica
Ġ6 6
Ġi mb
ĠMun t
entat ges
ĠBaix a
d oc
Ġre iter
amb aix
ĠEx tre
Ġlli ur
Ġreclama cions
Ã² dia
te x
Ġpresentar an
Ġa us
er ada
end um
ĠcÃłr regues
ĠK e
Ġt omÃł
oti p
Ġpop ul
Ġidenti fica
Ġpartid ari
ĠB ou
Ġcomplic ada
Ġcompar tida
enti a
P F
h ara
d as
anti guitat
ĠBL OC
Ġb ressol
z on
Ġaut op
ĠTen en
ĠmÃ²d ul
Ġextre ma
esc rit
le a
oport unitats
Ġdeguda ment
ĠLi ber
om ar
A igua
Ġespeci alitzats
Ġar bre
j as
ĠIn novaciÃ³
Ġconver gent
pid esa
Ġofici na
Ġest Ã¨tica
Ġm ots
Ġcorreg ir
Des prÃ©s
Ġsoci alment
ĠRos ell
arr Ã²s
ĠDoc tor
op os
ing rÃ©s
Ġacus ar
I r
ci cl
m ona
titz at
ĠS Ã©
Ġinver tir
Ġtrobar em
ĠC reus
aut ogovern
olÃŃ tica
Ġsaluda ble
200 4
tan er
b ella
Ġav entura
reg lar
Ġnorm alitzaciÃ³
Ġreg als
ven ils
Ġex isti
Ġinter canvi
Ġper if
ĠR ural
Ġdes b
ĠUr gell
RE T
UR L
cri u
ĠfreqÃ¼ ent
ĠQu ÃŃm
n t
ĠEn davant
ĠMem Ã²ria
Ġbran ques
Ġes morzar
ĠSindic at
Ġna us
ide es
Ġbar reres
Ġdeman o
ĠPasc ual
ma jor
la i
Ġdid Ãłc
Ġestal viar
ĠN arc
ĠV O
Ġdefens ors
Ġcre adors
Ġimpos iciÃ³
Ġson ora
ĠPas tor
ĠC od
Ġconsidera va
Ġargu menta
ga m
ĠS ex
M C
er ola
Ġdil ig
ce bre
ĠS ens
Ġrepro duc
encar rega
Ġparl ants
ÑıÑıÑıÑıÑıÑıÑıÑı ÑıÑıÑıÑıÑıÑıÑıÑı
Val Ã¨ncia
Ġg ats
Ġorganitz ades
wi ki
Ġtitu laciÃ³
Ġtar ra
ĠFeli pe
ĠS ig
em an
Ġpro vat
Ġes b
ĠFran ces
Ġpas tiss
ĠBatx illerat
el ements
Ġapar tats
in n
in osa
Ġvinc les
avan tatge
Ġbut xaca
ej e
Ġdistin ciÃ³
Ġbu its
gu ai
Ġtrob es
pres s
Ġqu Ã©
aj ud
Ġaj ut
ug o
Ġra cista
D igital
ĠPe ter
Ġtempor als
Ġen amor
Ġaleg ria
qu eria
olÃŃ tic
ĠEx per
Ġconven cional
ĠS ac
ĠhistÃ²rica ment
Ġmes urar
Ġdes ar
Ġnoctur n
ĠÃ Ī
Ġfres c
Ġg reix
Ġtr in
Ġa tes
espÃ¨ cie
L e
ĠDEL S
Ãłn iques
Ġfelici tar
ĠEn ten
ĠThom as
Ġsob te
ĠCiutad ana
acc ent
l ari
Ġse p
Ġsolid ari
Ġes glÃ©sies
ĠR Ã¨
Ġenem ic
ĠMa j
Ġop tat
Ġrom anes
vi ol
Ġv arem
p itj
ĠS ovint
histori ador
imp ar
ĠGu any
Ġtrac ten
G U
Ġplan ejament
ĠP av
IL L
Ġjapon Ã¨s
ĠH isp
mÃł cia
tin yent
Ġregi onals
AT S
ĠQu ines
Ġdes fil
ill as
ug n
eb ut
Ġrecord em
ti ran
ĠActu alitzat
ci li
vis ible
Ġpopular itat
ĠBaix os
v im
gu arda
Ġfun dat
Ġenten en
Ġes ter
Ġesmen es
? ",
ad olesc
Ġper n
Ġquali ficar
al ies
A renys
Ġdeix ava
id aciÃ³
ĠT j
Ġtal lat
Ġinteress ada
ĠPal amÃ³s
Ġi ron
ida ment
Ġam ants
á ¿
Ġrecla maciÃ³
en viar
Ġajud ant
ĠE ts
Ġis lam
ĠS af
es i
ĠLl en
mes es
ess is
Ġafeg int
Ġ1 000
ĠS agrada
hes ter
es ports
Ġcoordin ar
] [
Ġp ica
hor abona
Ġex istia
Ġcomp rat
b s
Ġd ents
la g
S e
Ġconcent rar
ĠAr nau
Ġbl at
In d
gu r
immig rants
Ġpl enes
i ber
F ont
Ġvot en
Ġdesp ro
-------------------------------- ----------------
ĠAn im
Ġrev ela
Ġsitu en
Ġdeix in
Ġexpedi ents
ĠF ri
f an
aj udar
ĠAc ord
ÃŃ b
ar o
ÃŃ o
Ġex pedient
d Ã¨ncia
Ġcompany es
ĠÃŃntegra ment
In vestigaciÃ³
eix a
Mad rid
oli ber
am ics
Ġno ble
Ġcamp anar
re f
Ġentorn s
al o
ob tenir
Ġcent enari
Ġman us
Ġcre ador
Ġpresenta va
ĠAz nar
Ġoc cidentals
Ġ9 00
rop ol
Ġun its
ĠCerc le
Ġaplic at
Ġ5 9
ĠBon et
Ġpen ya
Ġgall ec
Ġrefor Ã§
Ġfutbol ista
Î »
Ġhoritz on
Ġagra Ã¯t
el li
X X
Ġinten cions
ĠÌ Ī
Ġrec ti
ĠT OT
Ġcontr Ãłria
Ġes ment
I TA
h on
2 000
ĠN at
Ġcon vent
les i
ĠP U
ĠBer guedÃł
ĠLl una
ĠN et
Ġnorm als
Ġ0 9
AJ AJ
Ġcomp anya
Ġcircums tÃłncia
Ġm ull
Ġpol l
m ens
ĠL en
ad opciÃ³
ing res
Ġ6 3
ĠAr gentina
Ġsitu ades
om at
il le
ĠJer usalem
Ġass aj
Ġag ressiÃ³
Ġins istir
ina va
Ġsol em
Ġvide oc
Ġcommem oraciÃ³
Ġar ris
cal a
ap p
or questra
uc k
od ia
Ã²ces i
ĠPal af
ĠhipÃ² tesi
Ġcontemp lar
Ġimp rovis
ar res
Ġide als
ric tes
Ġp ou
Ġlimita da
Ġtreball em
a igÃ¼es
Ġqued ant
ĠC un
Ġprac tica
ĠTim es
Ġblan ques
ĠConc ert
! .
Ġdeix eu
ĠAl t
eg ada
Ġju eu
Ġt est
Ġen ergies
ĠelÃ¨c trics
Ġaddi cionals
Ġf isi
tur at
na m
Ġbas ca
elim inaciÃ³
Ġtreballa va
ĠEusk adi
an istes
âĢĶ ,
Ġ194 0
gu ers
labor ador
ĠMic rosoft
Ġtod os
ĠT ro
Ġamb aix
ĠC liment
es quÃŃ
ÃŃssim s
Ġmit e
met ratge
Ġfili al
es mentat
ĠMa x
Ġconsider ats
Ġdes esti
Ġrevolucion ari
ti ga
................ ................
ĠGovern aciÃ³
Ġreg nat
Ġvin gui
avi Ã³
ir re
Ġ6 7
il ats
Ġv ec
k istan
ĠUnivers itÃłria
sion ista
Ġmotiv aciÃ³
Ġconsid ero
Ġrob atoris
Ġpass aran
s ta
Ġdens itat
ĠMol let
ĠTrac tat
Ġcondem nar
Ġsensi bilitzaciÃ³
Ġre pl
r aries
Ġmoder ns
Ġsenti a
ĠB et
ER R
ĠPar tida
Ġnarra tiva
ĠM ig
Ġaer op
Ġt um
Al z
ĠH isenda
Ġra onable
es tra
ĠP ost
Ġacostu ma
Ġal ine
ĠpolÃŃ gon
Ġrealitat s
ĠOl ot
Ġalliber ar
Ġple bis
ĠTer cer
g arÃł
Ġesti guÃ©s
Ġredac tat
ric ul
Ġconsum idor
Ġcaut el
Ġdivid it
Ġxines a
Ġconf usiÃ³
k is
Ġal tament
Ġhistori adors
Ġespera va
Ġclassi ficar
Ġpla ques
Ġvol ar
Ġprogress ista
de o
Ġcal en
Ġespiri tual
Ġa ter
ti li
Ġacab o
ĠâĢĵ âĢĵâĢĵ
ĠG arraf
ĠEmpres ari
d Ã³
Ġ utilitat
Ġb orsa
S ab
Ġs Ãº
Un iversitat
ĠRen fe
Ġexclus ives
ĠD ES
Ġan alitza
ub e
si o
Ġsimp les
ĠjurÃŃ diques
Ġmor ta
ĠCated ral
fici als
Ġc itar
ĠCom erci
Ġgaud eix
Ġrestr ing
rem ta
ĠD isc
Ġmet re
ĠS EG
Ġfil os
Ġxen Ã²f
Ġcap tar
Ġrus sos
Ġpres tar
ĠNarc ÃŃs
Ġcom Ã¨s
erm an
ĠPD EC
ĠC hi
E ixample
Ġcons ecutiu
Ġpropos em
Ġprotes tar
Ġvinc ulaciÃ³
ĠSovi Ã¨tica
Ġpass Ãł
Ġt ol
ĠPar la
edi ficaciÃ³
Ġem et
Ġvess ants
Ġmediter rÃłnia
val enci
Ġincom pa
Ġcent ÃŃ
ac osta
Ac ord
ii ii
Ġimp ac
her Ã¨ncia
ĠResp ons
ĠUR V
f o
ĠLe on
ĠFre der
Ã² ss
ĠrÃłn quing
Ġmul tim
re ma
ja ments
In depend
Ġcomprom etre
× ķ
Ġconfron taciÃ³
Ġgas tar
Ġindic adors
ĠS ent
ĠLlar ena
inter venciÃ³
Ġsembl at
Ġmis Ã¨ria
ĠA ustrÃłlia
ĠEs tudis
p Ã¨u
Ġcomen cem
Ġde grad
Ġes mentada
lici ta
Ġfal lida
Ġcla v
Ġdem Ã©s
ĠÃº niques
ĠAut or
Ġrespec ta
ĠC ir
nis tia
H otel
Ã±Ã± Ã±Ã±
Ġfonamental ment
Ġdemoc ra
Ġv Ã¨ncer
Ġb egudes
ĠComun ista
Ġpreten ia
Ġviol aciÃ³
ĠH u
ĠO fer
ĠCan vi
drom e
ĠFil osofia
Ġincapa Ã§
Ġperd en
l ents
Ġcor reus
ĠcÃłs tig
I raq
Ġ19 50
Ġdic tat
Ġart ÃŃstiques
Ġdiver tida
ĠC AM
ĠdemocrÃł tiques
ĠS tar
inf o
v ÃŃn
ĠS uc
C o
Ġsab ent
Ġameric ana
Ġbot Ã³
; )
Ġdob les
Ġdefens es
Ġva u
Ġpreveu re
ĠtelÃ¨ fons
ĠcomenÃ§a va
p an
p all
aut ora
ĠMunicip is
Ġxines os
Ġx imp
Ġav ÃŃs
ar ticles
Ġprefer it
Ġc oure
ass ada
Ġenc Ãłrrec
p as
Ġsent Ã¨ncies
Ñ ģ
Ġcos m
Ġingress ar
us i
R ep
Ġpromot ors
si qui
esca u
Ġcomun isme
Ġinscri ts
p df
Ġsorg it
Ġpil ots
im s
Ġprecari etat
adjud icaciÃ³
Ġcar den
Ġllibrer ia
Ġsig ne
Ġfin alitzaciÃ³
ÐĵÐĵ ÐĵÐĵ
Ġassass inats
Ġarrib em
Ġcos tar
Ġcor por
Ġpol ic
Ġimpuls ada
ens ar
Ġvota cions
Ġtraves s
Ġdemostra ciÃ³
Ġdecid eixen
qu ers
os tic
ĠRa Ã¼l
ĠNob el
Ġcerti ficaciÃ³
Ġsis ena
Ġcomand ant
Ġsor tia
ĠagrÃŃc oles
Ġguany en
Ġindepend encia
que ig
eg i
Ġexperim entar
Ġinvesti ga
Ġdirig its
ĠSal am
Ġpresump tes
Ġcap it
I E
Ġregul adora
J ordi
h en
T ra
Ġprote Ã¯nes
ota da
ĠMan lleu
or gull
ĠG Ã¨n
Ġconjun ts
Ġdesigual tats
Ġpa io
ri z
ĠT ib
Ġfen Ã²mens
Ġobli dat
Ġmil er
ĠU til
Ġrecons trucciÃ³
Ġp onts
Ġro ig
gra ma
Ġadi ent
Ġca tala
Ġdavant er
Ġadop tat
ĠRe alment
Ġinter iors
Ġpreven tiva
Ġw ith
ens eny
Ġc Ã¨
ĠP els
Ġempr endre
Ġretir at
Ġmag isteri
ĠL ib
ĠP rats
Ã¨r bia
ĠP is
tu m
Ġcon Ã©ixer
or ant
Ġob ten
Ã¨s ia
Ġdic tador
Ġpar eix
Ġbloque ig
ĠmÃŃ ting
Ġjug arÃł
Ġdona ven
Ġpresenta cions
199 8
Ġres istir
Ġpl en
ĠEul Ãłlia
Ġtren cament
Ġpar ado
ĠA QU
Ġestabli ment
ĠJ imÃ©nez
Ġre eix
Ġprogra mat
Ġincl Ãºs
Ġper cebre
ĠVer d
ĠlingÃ¼ ÃŃstiques
t he
b as
pe ta
aut oc
ĠProf essor
Ġpresen tats
Ġemprened ors
Ġgir ar
Ġmental itat
arc h
Ġocup en
Ġp orn
Ġloc alitzaciÃ³
Ġsemif inals
r Ã¨s
Ġacc essos
Ġsa vi
Ġfac ultats
Ġsab or
ĠB ARCELONA
Ġ193 1
Ġpos eu
ress or
Ġter rible
TAN ÃĢS
Ġsetman al
op e
Ġent er
ĠAc tivitats
Ġra cional
j andro
Ġespa cial
is lam
ap un
Ġdescob erta
Ġtod o
Ġferrocar ril
VOC O
D C
trac te
Ġn eta
m il
Ġrela tives
IN VOCO
SA TANÃĢS
Ġpre val
gna cio
Ġcre en
Ġag ro
Ġrecord ant
ĠVi ol
at Ã²ria
ĠDoc umentaciÃ³
ÃŃ ac
Ġemp ar
Ġcorre dors
g ado
ĠP ap
Ġdisp ers
Ġpa ella
Ġvet llar
ĠM OL
rat ges
Ġt x
Ġvoluntari at
Ġcristi Ãł
Ġass isti
G C
Ã¯ en
en tant
Ġama ga
z quez
esta da
ĠB ul
Ġsec retaria
Ã ĳ
ĠAra gonÃ¨s
up a
ĠAlex andre
03 9
Ġantica tal
Ġdec ora
Ġinc endis
Ġla va
Ġdedic ats
Ġex terna
Ġdona cions
Ġson de
ĠPers on
Ãłn dez
ĠTecn ologia
Ġal gu
Ġvig ents
Ġacces sible
Ġimpression ant
vid eo
Ġaprofund ir
Ġinter vin
à ¦
ci nes
rec ciÃ³
ĠS ir
Ġab usos
Ġtrans curs
Ġgol f
e jo
j Ãł
Ġcorrec ciÃ³
Ġ197 4
in as
Ġconnex ions
Ġdol Ã§
ĠÃĢ ngels
Ġclar edat
ĠCh ac
Ġsub ter
Ġ9 2
er re
ĠP ub
em marca
ol at
Ġmasc l
Ġpen itenci
Ġll urs
Ġcar reg
na val
him ne
s is
Ġedi tar
r Ã¨m
ĠD UI
Ġ196 8
qu istes
ĠFed eral
bl ir
Ġg aletes
Ġe va
ingres sos
investi dura
Ġdivers a
uta cions
mon ia
Ġmod e
igien e
ĠE U
Ġpas tÃŃs
P al
Ġperme tia
G ran
ĠD an
av ÃŃs
Ġconcent racions
Ġbla va
el es
Ġretal lar
Ġes camp
ho ol
Ġcap tura
Ġsinc erament
Ġmobil itzar
ĠtÃŃ pica
rug ell
com unitat
Ġec lesi
divers itat
Ġdisc os
H onor
Qu i
Ġsus cep
im atge
pro jecte
ĠÃī S
Ġtret ze
tÃłn yer
catal ans
Ġorganitz ats
Ġextraordin Ãłries
Ġcomerci alitzaciÃ³
P res
ĠReg ional
Ġra dia
lo v
Ġi t
ex amen
ĠV ista
assa ig
Ġinform Ãłtics
Ġquali fica
Ġgas os
Ġcrim s
Ġmagn ÃŃfica
Ġconver gents
Ġfitx ers
Ġpart ÃŃcules
Ġpre cep
ĠEl ena
ri e
Ġpresen tant
Ġinter ro
Ġas cens
Ġde gus
Ãł pies
assum ir
Ġnete jar
ĠDe cid
ill or
Es tany
is tint
it eu
Ġvers os
ĠPasqu al
Ã©n ia
ĠG ol
g overn
ĠSeg on
L lu
ti d
ĠV eu
Ġvi Ãłria
Ġrecap taciÃ³
ĠRes id
seg ons
Ġta p
Ġprivi legis
Ġtrasp Ãłs
Ġarrib ada
Ġdec ad
Ġadver teix
: "
Ġsuper vis
ĠVol un
cri ta
Ġavis ar
Ġre vi
l via
ĠRub ÃŃ
Ġconsolid at
ĠCalaf ell
pro pi
Ġv on
Ġrequis it
Al g
Ġmob iliari
h op
Ġc edit
Ã² via
Ġrenova bles
Ġsin Ã²nim
Ġnega tius
Ġmon uments
Ġagra di
ren e
or ro
Ġprocla maciÃ³
Ġge ografia
ĠPens o
Ġadqui rit
ans es
ĠIn di
ĠÃ© rem
la us
Ġdivid eix
C S
Ãłl bum
s empre
mp l
blogs pot
Ġrecol lides
ĠP enya
ĠP L
t le
Ġg ot
Ġras tre
Ġviol ents
qui ta
Ġconfi ar
ai da
Ġvia ble
ĠÃłnim a
Ġm eridi
Ġenfron taments
Ġen dar
gi o
lo ent
on ari
ĠN ot
M on
ĠMitj Ãł
Ġfranqu istes
Ġpag ant
aleg ria
Ġconcurs os
lle ts
Ġ19 30
pens able
Ġcer tament
Ġbar rera
Ġtes is
inf ants
ĠA ires
er on
ĠcÃ² pies
Ġfemin isme
Ġrec ta
Ġlla Ã§os
or de
Ġperm isos
Ġrot llo
ar ques
ĠPro cÃ©s
Ġpromo gut
ĠConf ederaciÃ³
Ġliber als
Ġcompr Ã¨n
ÃĢ sia
si g
Ġdist rictes
Ġlli gada
Ġestr anya
Ġestabl erta
in os
Ġmediamb iental
Ġsub mar
pi ta
Ġperdu da
am i
Ġsor prÃ¨s
Ġmascul ina
Ġarrib ava
I m
ĠAlfons o
Ġinteg ritat
Ġvincul ant
Ġb osses
Ġadver tir
Ġdem and
Ġdist Ãłncies
Ġordin Ãłria
Ġamp liaciÃ³
Ġmantin drÃł
ĠB ibliot
c up
Ġre ca
ru it
ĠJu venil
Ġne oliber
ĠR as
âĢ ĭ
Ġten sions
ĠVer ge
ĠA G
Ġt emÃłtiques
quebis be
Ã¯ r
Ġdesigual tat
Ġsalv atge
pi ques
ON T
ĠCastell ers
Ġpropos iciÃ³
Ġt Ã²x
ĠMol ina
Ġs ul
Ġt Ãłc
7 00
ĠO bama
ĠRad io
I ni
it Ã²ria
em o
Ġbarcelon ins
Ġcoincid eixen
Ġc anya
Ġtari fes
Ġ194 5
ĠEspor tiu
rig ht
t us
Ġde tecciÃ³
Ġoc ells
Ġex ist
eg al
ass e
Ġcar ril
Ġre afir
roba blement
ĠL an
Ġma ta
Ã¡ rez
Ġas sim
ĠÃłmplia ment
tan o
ĠA la
til itat
Ġcanvi en
ĠG aran
Ġest ranger
ug ar
Ġ( -
Ġes querres
C amp
ĠMus ical
Ġreac cionar
ĠB eren
b ur
ĠCic le
ĠC Ã²r
l or
ra u
p ri
Ġantec edents
Ġac Ãºs
Ġacab ant
Ġfam osos
en en
Es tem
sion istes
Ġrela tiu
ĠTS JC
Ġest elada
Ġnom bres
Ġincre Ã¯ble
Ġfron ter
ran es
Ġap orten
Ġinteress ar
ĠMo z
re i
Ġdepen en
ĠB arcel
investi g
Ġvege tals
Ġju venils
in novaciÃ³
ĠD onald
ver gon
ĠP xC
Ġmens uals
ĠC rida
Ġagra den
Ġprogres siva
Ġdu ent
egu era
Ġemp rar
lustra ciÃ³
Ġint Ã¨rp
Ġrecol zar
Ġf essin
tal in
Ġob tÃ©
orig inal
Ġdesaf ia
fÃŃ cies
ĠR ot
Ġ6 1
as tr
de vila
Ġjuris dicciÃ³
ur gÃ¨ncia
Ġsup Ã²sit
ĠÃĢ lex
ĠPen al
av entura
Ġcristi anisme
Ġin esper
Ġcontr aris
ĠD alt
ertz ale
Ġex iliats
ĠCom enÃ§a
ĠN ecess
Ġdro ga
Ġ18 0
ĠIm atge
Ġsent enciat
UR A
h in
Ġsob ren
Ġcent rada
Hab itatge
egu retat
Ġlit res
Ġsot met
Ġtur c
Ġaplic ant
es mentada
Ġmec Ãłnica
ĠA P
ĠB elles
ĠB ig
Ġconstitu Ã¯t
ĠTÃ¨c nic
ol or
Ġconsid eri
ĠC GT
Ġmor tals
er va
Ġforma tives
il y
Ġnucle ars
oc res
an et
Ġport o
Ġconf ondre
ĠRib es
Ġex pon
Ġvin drÃł
Ġgra pat
Ġorganitz en
Ġdoc trina
Ġesp l
Ġsem inari
Ġgust os
Ġara g
Ġi a
Ġres ident
g ma
st Ãºries
Ġgra vat
ust os
Ã£ o
Ġsatisf ac
ĠR ida
Ġquil os
Ã© l
O bra
ĠO pen
c osa
reix en
Ġt rom
ri des
Ġmenys preu
ic Ã²p
espec tador
Ġin vent
Ġrespec tives
ar bre
Ġdef ecte
ĠÃ¨ mf
m any
Ġforma tius
Î º
Ġmala uradament
ĠPD F
escol tar
Ġpuntu als
Ġsup ressiÃ³
Ġconc edit
Ġcin ta
Ġproduc tivitat
Ġconstitu ent
AD N
Ġesc alf
ĠC y
ĠV ida
Ġcombus tible
Ġdom inar
ma i
v ot
o e
Ġproduc tiu
OR A
ĠlliÃ§ ons
ĠJut jat
ci tament
en ginyeria
Ġs anta
ĠRos er
Ġpl orar
ĠConser vatori
ĠCont empor
rim it
A mp
Ġl ot
Ġedit orials
ĠP il
Ġestat ut
ĠReg iÃ³
ON G
Ġmen ja
e ficÃłcia
g Ãłria
f et
Ġ197 3
actu acions
Ġpar teix
Ġdeci siva
Ġvisi bles
Ġinter acciÃ³
ĠmÃ²d uls
Ġporta ven
ag ent
ĠDel egaciÃ³
Ġf arien
Ġcerti ficats
ell ers
r ol
Ġtradu Ã¯t
Ġaga fa
Ġapro vaciÃ³
Ġrecull en
Ġsa pi
Ġsen sible
Ġqued aria
Ġregid oria
Ġtre pitj
ab tes
n om
r all
ĠLu x
ĠS ad
el ement
r Ã²p
ad ÃŃs
Ġdi guem
ĠRoss ellÃ³
Ġimp ulsa
an iversari
Ġcal cul
ĠF R
inici ar
Ġenvol ta
ĢâĸĢâĸ ĢâĸĢâĸ
el eg
ĠE fec
ar tistes
Ġdisc re
Ġresid encial
. ),
Ġmen tals
Ġtecn olÃ²gics
Ġbut lletÃŃ
Ġsen ador
u tes
Ġcastell ano
mit h
f ab
Ġmin i
Ġapar ell
Ġper tÃłnyer
Ġapar entment
Ġunion istes
Ġsup ortar
ril la
ĠRe ina
Ġclic ant
Ġlle vant
w ell
Ġcompens aciÃ³
Ġcomp osta
le tisme
Ġ17 14
asc ut
Ġsubstitu Ã¯t
Ġinn ecess
ĠDom ingo
ĠAn g
Ġmat erna
rit z
al erta
ĠmÃ¨ri ts
ĠespecÃŃfica ment
ex tensiÃ³
tan cia
Ġimm un
Ġpantal ons
Ġobli dem
ĠfÃŃs ics
Ġfals es
ĠVen Ã¨cia
Ġmar ÃŃtim
ĠfÃł cils
ĠSim Ã³
Ġagu antar
Ġredac tar
ĠjurÃŃdic s
ll en
ĠD VD
ĠS Ã¡
ver es
ĠRÃ¨ gim
ĠBen efici
Ġmob les
Ġtor tura
ĠS ic
un ciÃ³
Ġrealitz aran
bl ia
M i
Ġallar gar
ĠI sa
Ġdot zena
Ġsemes tre
Es tiu
Ġmodi fica
Ġfur gon
Ġgui es
ot t
ĠMod el
Ġmos trant
Ġsom etent
Ġmac ro
Ġaliment Ãłria
em iss
ĠBla ck
Ġcos tats
Ġin capacitat
espanyol a
Ġdi vor
ĠS OL
Ġavis at
ĠU OC
ĠE ti
Ġob rint
f em
Ġcastellan oparlants
ĠJo han
Ġcamin ant
ĠT emporada
Ġver tical
Ġprodu int
Ġrecon eixen
Ġpag Ã¨s
umen ges
Ġcoopera tives
ĠlliÃ§ Ã³
u its
ĠA tenciÃ³
Ġsimpatitz ants
? ".
Ġy o
ee ee
j am
Ġobli gada
il d
R es
Ð ²
Ġcelebra cions
ĠE bre
pos at
Ġcer eb
Ġan tis
EC T
Ġent rant
Ġpor teria
Ġjut jar
C am
Ġvic e
Ġtranspar ent
c ades
uc ra
Ġsup Ã²sits
ĠAr rimadas
ĠgrÃłfic s
Ġro ques
Ġvi ola
an al
Ġsubsi di
Ġprovoc ant
ĠLit eratura
ĠDemocrÃł cia
Ġproven en
ad op
itz ador
ĠMich el
Ġf ina
ĠdiÃł metre
Ġs Ã³
Ġven Ã§
Ġreit erat
ov o
Ġin tr
ĠBor rell
oc ul
ir al
ĠGener als
ĠC V
aut obÃºs
Ġpre ve
Ġfrag ment
ĠA mat
Ġmallor quÃŃ
Ġdi Ãłriament
Ġtarra gon
arrib a
m iento
ĠC ass
ĠDel ta
Ġavent ures
Ġl engua
Ġdi eu
Ġext ens
ĠCal des
Ġk ur
Ġencar regats
ĠHer rera
ĠH otel
as es
er ro
ĠV ilar
Ġam istat
tes is
ĠOr dre
Ġa Ã±os
is tats
sion als
Ġb ien
Ġcad ires
Ġdec or
ĠEs port
con tra
Ġseri osa
Ġcam ions
aix a
Ġestrang eres
Ġexpos a
Ġmas car
on om
c ular
equip s
di cional
ĠCas ado
ĠM iss
Ġdin Ãłmiques
ĠI ma
Ġindis pensable
Ġb es
ĠEstat uts
Ġsatisf et
Ġefectu ar
Ġrecom anar
Ġrecolz ament
Ġprejudi cis
Ġsucc essor
ĠOs car
b ili
Ġmig rat
c ans
Ġid Ã¨n
Ġesmenta des
s Ã¨n
Ġrep Ãłs
Ġad onat
hab itaciÃ³
ĠCor re
Ġesc and
ĠÃ¨mf asi
Ġpales tins
ĠRoc k
Ġagl u
Ġja ciment
du eix
Ġpos in
Ġpreci sa
ĠNic ol
Ġcre ences
li u
e ir
Ġadequ ades
Ġpar roquial
Ġcar tera
Ġpreocup ant
ĠMarc o
tany ol
Ġcu idar
edifici s
T arra
Ġform alment
Ġb Ãłndol
ĠNaciÃ³ Digital
ĠprÃ² r
tad ora
Ġassump te
Ã²r dia
Ġcondi cionat
ĠV ÃŃ
Ġantica pital
ĠU l
ex pediciÃ³
ec ans
Ġp ilar
ĠC OR
ĠdesplaÃ§a ments
guin es
Ġf reg
ĠLle vant
Ġcatal og
ĠC ara
Ġf Ã²ss
ĠVirg ili
Ġposi tives
Ġar tic
Ġpass ats
Ġcap es
Ġdu ia
Ġdescend ents
or y
O F
ord era
Ġprote gida
Ġcos tes
on ze
rer o
Ġprom eses
ĠCon eix
Ġdes pr
im es
Aix ÃŃ
ter dam
ĠTrib utÃłria
Ġp als
ĠSÃŃ lvia
Ġsegur s
Ġbol ets
ac cessibilitat
Ġme tall
Ġtruc ades
ĠMont blanc
ad at
av anÃ§
Ġbicicle tes
Ġelec tors
ita da
k ia
ĠPlat ja
obi erno
Ġ19 20
ĠA RA
Ġassaj os
Ġanomen ades
ĠhÃł bil
Ġflu x
gu esa
Ġdemag Ã²g
ad olid
Ġcator ze
Ġdonar ia
escrip ciÃ³
y wood
Ġali anÃ§a
ĠMÃł laga
Ġobri ran
ĠVer ds
ĠPor tal
âĢĵâĢĵâĢĵâĢĵ âĢĵâĢĵâĢĵâĢĵ
Ġta b
Ġnor anta
ure u
Ġrec re
Ġcar t
ĠG Ã¼
Ġgesti ons
Ġcalc ular
hor itz
n als
c ula
Ġlid era
ĠEsta tal
ESC O
Ġcant onada
ĠMo di
Ã Ĥ
erra des
qu illa
ĠS tre
Ãį DE
Ġe ficÃłcia
ĠSanta mar
ĠIN D
I EC
g h
ĠtÃ¨x til
Ġbenefici ar
ci r
ac cel
ab ora
Ġac ollit
ĠVic tÃ²ria
am istat
ĠIn terior
Ġassum eix
Ġb atal
Ġdir Ãł
du a
Ġcom arcals
hab itants
est Ã©n
ĠG is
z y
Ġtrip le
ĠcomenÃ§ aran
men gol
Ġ3 50
Ġdefens or
ĠÃłnim s
g eu
ĠP un
ĠMonts eny
ĠNa tional
ĠK os
ĠHol anda
d an
d y
Ġprepar ada
nex iÃ³
ol c
Ġpensa ments
Ġpin tades
Ġaconsegu eixen
am Ã¨rica
Ġgu ar
Ġplant egen
par t
or Ã§a
Ã² riques
ropol itÃł
Ġll adres
Ġver dures
y ol
Ġtorn aran
ra va
e ver
ill s
Ġcompa tible
Ġincor rec
b ita
Ġfi la
ĠT ab
Ġ ï¿½
ĠForm a
Ġfas cin
Ġmundi als
Ġcab ell
ĠAl c
C a
, "
ĠS um
ĠP O
ĠT eix
inclou re
Ġquin zena
ex cepciÃ³
Ġsecund ari
ĠautomÃł tica
pa in
Ġbomb es
Ġa pr
pl ec
ad missiÃ³
Ġdiss oluciÃ³
Ġselec cionar
Ġavi Ã³
ĠsÃŃn tesi
Ġabs orb
e vid
alg Ãº
ĠVe Ã¯ns
Ġdestac ada
Ġsor prÃ¨n
j ac
ex hib
Ġcol pe
ur en
10 2
Ġsem i
bre u
al Ã§a
ĠD it
Ġinter vingut
Ġpro vision
ĠAd ministraciÃ³
Ġec olÃ²gic
ĠCa pital
k es
ĠCom a
Ġober tures
Ġtram itar
con tin
loc aciÃ³
Ġor ien
ĠCom pl
Ġac onsell
ur r
t rans
Ġfort una
Ġpres ons
g ener
Ġinterloc ut
Ġani ria
N a
Ġterrat rÃ¨m
Ġrepresen tats
Ġtorn ant
Ġrecicl atge
Ġrac ons
Ġinevi table
ĠF Ã¨lix
te xt
lo qui
ĠFran ja
Ġsot mÃ¨s
ĠC inc
ĠSegu ra
Ġ eres
ĠBale ar
ER O
ĠG U
Ġpatr ons
Ġtermin al
Ġapla udi
Ġadre Ã§ada
Ġsis Ã¨
Ġconquer ir
ĠI gnacio
ĠMont cada
Ġvinc le
Ġquer ella
Ġn an
ĠSÃŃn dic
ĠelÃ¨c triques
Ġ197 2
Ġboti f
accep tar
ĠPDEC at
Ġproced Ã¨ncia
Ġvulnera bles
j Ã³n
ĠTard Ãł
Ġc orn
Ġcondemn ats
Ġbenefici aris
ĠGa za
Ġoc orre
Ġmet Ãł
Ġmad u
Ġna cion
Ġmol esta
Ġco va
Ġr endes
Ġinf o
Ġdes graci
ĠNorm es
Ġdes tina
Ġvoc als
autop ista
Ġpob la
Ġn ed
Ġfrances es
Ġex ecuciÃ³
Ġevol ucion
Ġreform ar
al arma
Ġpen als
Ġpen siÃ³
Ġforma tiu
ÃŃa ca
eng any
t Ã²nic
s ub
ĠW est
ĠCompany ia
Ġan g
Ġestel ades
ĠBarcelon Ã¨s
ĠB ass
Ġl ar
Ġdenunci en
Ġespectac ulars
I O
uster itat
pe ti
Ġpresid ir
lle i
Ġapos tat
Ġclo enda
Ġent rena
ĠTO TS
qui da
Ac tu
ĠB ill
ad Ã³
alem any
Ġass al
i ficaciÃ³
Ġbit llets
Ġ7 7
Ġh im
Ġan Ãłlisis
Ġtur Ã³
Ġmul tes
Ġo est
ci taciÃ³
Ġca os
Ġmusulm ana
le ix
Cas tell
espÃ¨ cies
Ġsorg eix
ĠRida o
ess Ã¨ncia
Ġde fici
Ġ196 9
Ġord enat
Ġliter alment
Ġcon fes
ad s
Ġbar ro
Ġlle ida
Ġf Ã³ra
Ġescri vint
ĠsÃ² lida
tiner ari
ĠP ag
Ġabs Ã¨ncia
eti queta
ĠSeg re
a ga
a er
amp le
ine da
ĠBuen os
Ġsuc cessi
Ġatur at
ĠconvenÃ§ uts
Ġcal ent
Ġo posar
Ġcurs ar
Ġcon tenir
Ġav anÃ§ant
20 20
ĠMar x
Ġver ds
L S
Ġtera pÃ¨u
... ),
Ġtro iÃł
AN YA
rac cions
ĠPalaf rugell
ĠsÃł pi
Ġmillor at
ĠB ag
ĠFin al
ĠT ras
Ġgl Ã²ria
p lau
Ġfe ble
Ġab as
Ġescri tes
ĠJ urÃŃ
es bor
Ġcar di
Ġforma va
Ġculp able
Ġconf id
Ġestre ta
IS CA
I ran
ĠGaud eix
Ġemp at
ost Ã¨
Ġpor que
ĠF Ãł
Ġpa tin
ĠTol edo
Ġcab ells
Ġavis a
ĠQu ir
Ġteix its
Ġmon itor
ĠfÃ³rm ules
ĠSobre tot
Ġsals a
is es
Ġcor al
Ġfund adors
Ġmon arca
Ġmir en
ĠX I
Ġpres idi
ĠG ri
Ġven ien
Ġmani obra
) )
w ork
L ES
Ġexc Ã©s
ĠLe a
ĠC ur
ta rem
ĠRobert o
ell ada
exp ulsiÃ³
en giny
Ġgovern ants
Ġlli urat
Ġrelig ions
ta bles
Ã ¢
Ġar mada
Emp res
ĠBlanc o
Ġequ ilibri
atre v
en fons
Ġexig Ã¨ncies
Ġubic ada
Ġ0 2
Ġat ribuÃ¯
Ġenreg istra
Ġdec ep
af iciÃ³
R a
Ġc ist
Ġindi cis
y or
Ġutilitz ades
inc ompliment
Ġplur alitat
Ġgros sa
ĠcontenciÃ³ s
ĠV ar
Ġide olÃ²gic
ĠA i
Ġde ro
OP A
or itat
Ġp ale
Ġse ca
Ġha y
Ġdeu tes
minis trar
Ġtrag Ã¨dia
Ġri era
Ġcrea tiu
Ġmir at
Ġner vis
ĠCor al
Ġcr uel
Ġfigu ren
Ġam igues
c ador
Ġc iv
Ġmol Ã¨c
Ġlli ura
ĠCom ÃŃn
Ġn Ã©
Ġprogres sivament
lÃłn tic
Ġva por
Ġdesc rit
P or
Ġcim era
Ġen ve
Ġcontradic cions
Ġcontrac tat
Ãłr mac
ĠVerda guer
Ġenvol tat
Ġar ro
Ġvi ta
ĠOrganitz a
ĠGlob al
Ġcomun itari
at mosfera
ar ri
aj uts
Ġpresent em
Ġrecap tar
Ġpseu d
es trat
t z
N O
Ġfres ca
Ġoport Ãº
ĠOb jec
Ġenca min
Ġreg nes
Ġlim itaciÃ³
Ġg ab
ĠCa vall
allot jament
ĠC OL
ad en
ĠCap ÃŃtol
Ã¨s ar
Ġsamar retes
Ġpreocup ar
Ö ´
Ġextrem adament
ĠQuÃŃm ica
ĠSan z
e ina
u ci
ĠZ el
c lar
vi al
Ġdi umenges
Ġper pe
ĠF ron
ĠJ A
Ġb uro
ss os
Ġestruc tural
it Ã©
Ġb er
id er
ĠBr un
Ġg ai
Ġcer e
ĠD illuns
ĠP ou
Ġpos ats
Ġtele f
Ġprov oquen
aprofi tar
a plic
ĠOs ona
Ġtemp esta
Ġcompor taments
Ġqued aran
ÃŃn dex
Ãł x
En tre
Ġres tar
ar que
por taciÃ³
Ġan al
s or
AN D
Ġull eres
Ġcre ativa
ĠF ora
ĠGreg ori
Ġdirec tiu
Ġresul tant
Ġpass ap
Ġre ta
Ġdu res
Ġassoci ades
l ing
Ġfac ebook
ĠLla ch
ã ģ
Ġtrib ut
Ġatemp tat
Ġca Ã§
T j
a ments
Ġdirec trius
Ġcam iÃ³
Ġo k
tu ar
ĠContin u
Ġliquid aciÃ³
ev o
Ġi ll
Ġ ]
Ġdeb utar
ĠPri orat
Igual tat
g essa
Ġforma tiva
estructura ciÃ³
ti f
Ġb orb
Ġv ents
Ġc allar
ĠÃł cid
is si
Ġcontrol at
est o
Ġprohib eix
la p
P h
ĠInterna tional
Ġal b
Ġquan tia
ĠPer Ãº
Ġra u
Ġremodel aciÃ³
ĠDiu en
Ġ196 7
Ġpsic ologia
Ġsob irÃł
Ġdifer enciar
amp li
Ġurb anes
Ġf ites
Ġmur alla
Ġext ensa
m ut
ĠFin lÃłndia
ĠseqÃ¼ Ã¨ncia
Ġsol ars
obser vaciÃ³
Ġbit llet
Ġfelici tats
Ġex amin
ĠIN F
Ġc ites
Ġd ÃŃa
Ag rupaciÃ³
Ġcon ca
Ġinc ertesa
ĠA pa
Ġvisu alitzar
Ġconsci enci
ĠP eti
al ternativa
ĠP AR
ĠcentÃŃ metres
Ġind ÃŃgenes
Ġignor Ãłncia
ĠV iny
ĠÃĢ ustria
Ġp ulm
h eu
Ġprojec tar
Ġex haus
Ġdetermin ant
Ġreb ran
Ro vira
Ġbat lle
m ul
ĠTen ia
Ġhom og
Ġconduc tes
ĠL et
Ġes mentar
val uaciÃ³
ĠEx p
v inc
Ġpro to
Ġbar at
ins erciÃ³
ss in
Ġpu jant
ĠCar bon
Ġdestr oss
i Ã©n
ĠCN T
Ġs el
Ġcol ons
Ġcar d
er an
ĠMor era
ĠDim ecres
Ġderi vada
in ven
ĠTran siciÃ³
lo w
Ġdes tru
Ġfona ment
ĠAn em
Ġ193 7
Ġdisminu ir
ins titu
Ġac la
Ġ6 9
Ġvergon y
Ġind Ãºstries
Ġrecoman em
r ista
ĠS EM
Or den
Ġplanteja ments
Ð »
Ġdedic ades
ix os
Ġimplic ar
ĠAss egu
ĠAl em
Ġfant Ãłstica
Ġbar b
Ġra cistes
ĠBis bal
Ġelec tes
f um
elec tricitat
Ġcommem orar
Ġrespon en
Ġcivil itzaciÃ³
ons eller
i an
Ġha guÃ©
Ġconv icciÃ³
Ġfru ites
ĠQu art
Ġbas ats
Ġassign atura
Ġa prenentatge
Ã¡ zquez
Ġdespla Ã§at
ĠSup ort
Ġtit ulada
Ġac ollida
Ġimplem entaciÃ³
Ġdesen cad
Ġt witter
Ġgra vaciÃ³
ir in
en viament
Â °
ĠAngel es
Ġpedag ogia
ĠE diciÃ³
ĠSegu int
ĠdifÃŃcil ment
Ġmir all
Ġar rep
ĠG ord
ĠPar lem
Ġtin gueu
Ġdesitj os
Ġautonom ies
Ġsan itÃłries
ĠSan tan
estudi ar
ons ella
ĠG ai
ĠRom ero
Ġmodi ficat
Ġbl in
Ġpancar tes
ĠMar k
Ġinven tar
vil le
Ġdiss abtes
Ġinaugu ral
ol ar
ĠI ber
n ers
Ġg amb
Ġvari ants
Ġconserv adors
ĠSec und
Ġdesc entr
Ġpronunci at
Ġvesti r
Ġalim entaciÃ³
ĠautÃ²n om
Ġpr incesa
Ġ7 1
p edia
Ġequi vocat
ci ni
ĠL im
Ġocup ada
a us
IN G
Ġe pid
Ġconf inament
ĠSer rat
Ġprob abilitat
co ver
Ġdis capa
Ġgra tis
Ġ193 4
N omÃ©s
ul tra
ac or
Ġinstitu t
Ġinterp retat
m ond
Ö ·
Ġsub ordin
ĠFreder ic
ĠK en
Ġguany i
Ġsinc er
Ġhistori ador
Ã¨ rics
Ġcorres pons
Ġactiv ista
ri o
ral la
Ġconstru int
Ġ7 3
Ġcre mat
Ġ Ø
Ġve i
ĠJ ul
ĠManc hester
ĠR uta
ĠVa tic
ĠAn glada
Ġval idesa
Ġmot oci
r Ã²s
ni vell
Ġfi res
Ġacab ava
tar isme
Ġtor rent
Ġdip Ã²sits
g Ã¨n
Ġatur ats
Ġdomin is
Ġbi ografia
Ġf Ãłstic
Ġconsum ir
ĠDivers os
Ġsegu eixi
ĠId enti
Ġsab ien
C h
ĠFelici tats
Ġmod erat
T ots
Ġparticipar Ãł
ĠMon ta
Ġpa tates
Ĵ âĸ
Ġfacili tarÃł
ĠI rene
ec k
op tim
ĠPro pi
ud o
Ġsepar ats
ĠUN ESCO
c ha
ĠPar t
Ġtele visions
Ġen gl
ĠB ran
Estudi ants
ĠFin alitat
ĠT un
ÃįDE O
Ġex Ãłmens
ac er
Ġpublic arÃł
Ġrefer eixo
Ġconf luÃ¨ncia
Ġreperc ussiÃ³
Ġmen ciÃ³
Ġjo guines
Ġman cances
Ġexerc eix
Ġcomplex es
ĠGin p
w an
Ġmercan til
li e
ĠCor om
Ġpass em
ĠE conomia
EN A
Ġprodu Ã¯da
oc ador
Ġav in
plic at
Ġel em
ĠI B
ĠprÃłc tics
Ġtras torns
ĠOr g
in fec
rim es
u ament
ac ÃŃ
Ġc ass
ec o
A E
En titats
Ġd og
li gents
Ġdi versi
Ġdispos ada
el p
Ð ³
ĠBi el
Ġcomb inar
Ġ197 1
Ġcon ducciÃ³
Ġassoci ada
ĠRecord em
Ġperman Ã¨ncia
ĠS ra
alles ter
) ...
ĠB ir
aconsegu eix
s Ã³n
iv ell
Ãį S
ĠS tan
ĠOr den
Ġsos p
Ġca ble
eg as
I l
Ġestableix en
we e
Ġtraves sar
ĠC res
Ġindependentis me
r ÃŃa
emb urg
Ġbas ades
ent esa
Ġfer ida
Ġ8 8
Ġr enaix
Ġca tanyol
Ġsimb Ã²lic
ort h
elim inar
ĠO R
Ġver teb
ĠGu in
ĠCÃŃ vic
ĠGu er
Ġemp itj
es panya
se a
m eres
Ġ7 6
Ġf at
ĠSol Ã©
a Ã¯
ĠÃ²b viament
ĠEn ginyeria
Ġexpl otaciÃ³
arc at
Ġadre Ã§ar
Ġdon Ãł
v arÃł
Ġges tor
EN S
isc op
Ġos cil
organitz a
Ġno t
tÃł l
Ġjap onesa
Ġmin erals
Ġ-------------------- ---
bo a
Ġimprescindi bles
Ġcomun itÃłria
Ġtoc ant
200 1
Ġabsur d
Ġsegu its
ĠGav Ãł
Ġreg eneraciÃ³
tr Ã³
Ġaspir ants
Ġi o
Ġpar at
ĠIs l
ad on
Ġball s
Ġdub to
ĠD escripciÃ³
ĠA B
Ã¨ri ques
enfron tament
Ġrec rea
Ġg rip
ot ja
voc aciÃ³
Ġestruc turals
esc oles
In ventari
Ġfan g
OR N
Ġdol ents
ĠRom ania
Ġ0 80
ĠOber ta
ĠP ART
ĠEspor tiva
ĠP rÃłc
Ġcont ribuÃ¯t
ĠB anda
Ġexclus iu
Ġqualitat s
ĠEl is
an ov
Ġsucces siÃ³
Ġdeleg acions
Ġfilos Ã²
omet ria
Ġesquer re
fi la
ĠD uc
Ġaband on
Ġnad Ã³
br inar
Ġinsu ficient
ĠPep e
Ġtin guis
Ġentre gar
). -
Ġexter ns
Ġde pressiÃ³
ĠfaÃ§ anes
ĠPod en
Ġacc ed
m eric
Ġinvestig adora
edi ment
Ġfos ca
H er
ĠCan Ãłries
ĠquÃŃm ics
Ġtoca va
Ġsot mesos
Ġenc orat
Ġimp osa
Ġrepro duir
ĠMitj anÃ§ant
Ġcr om
Ġ7 4
ĠDist ricte
Ġdes acord
ĠS ep
ĠAm eric
Ġaixec at
ĠSu Ã¡rez
Ãł frica
Ġcompens ar
An dalusia
Ġbar alla
Ġor questra
Ġaspira cions
ess ors
o ficial
aire bÃ©
len ou
Ġre empla
Ġfum ar
ĠCastell ar
ĠK o
Ġqued in
Ġtrib us
estableix en
Ġreb ent
Ġderi var
Ġprotagon itzat
Ġpos tres
Ġag enda
g Ãł
tu re
Ġdivor ci
Ġform alitzar
Ġre duc
s ega
Ġbar res
espera va
Ġmal vers
Ġqueix ar
ĠMet ropolitana
x ÃŃ
asset jament
Ġl Ãł
Ġcompos icions
ĠestÃł vem
ĠOl tra
ys tem
Ġr ug
Ġindis cu
Ġred ist
ĠBeren guer
Ġadequ ats
ĠH A
Ġs ofer
Ġr enta
om ot
Ġinsul tar
Ġ13 0
Ġsan cion
Ġcris tal
ĠI si
Ġsigni ficar
Ġk g
ĠJos e
en tats
ĠUnivers itats
Ġpais atg
Ġ11 0
Ġvaria cions
Ġpres um
ĠB io
Ġir respons
ĠAf eg
ĠC all
Ġar cs
D el
ĠR enaix
ĠPa is
Ġre prendre
ĠA ran
ĠMunici pi
vent ura
ĠA u
Ġquad rat
ĠIn tro
Ġpor ti
Ġcri atures
tat u
Ġfidel itat
Ġporta veus
ĠCh risti
ec os
if a
ĠDam asc
ĠA ma
Ġtruc ada
Ġdispu tat
Ġprotoc ols
Ġbarcelon ina
via m
ĠCal a
Ġtraduc cions
Ġapor tat
Ġenfor tir
Ġac udit
. (
an z
omb raries
ĠCiutad ania
ĠIN TER
Ġret weet
ric k
ĠB lu
ÃŃ lies
Ġpantal les
ĠA renys
Ġtorn in
ĠMon te
Ġmarc ats
Ġpermet ria
tan i
Ġ193 8
AS S
Ġordin ari
ĠV iv
tar ra
ĠprÃ¨ vies
Ġequi par
Ġliter aris
ĠS AL
Ġel o
Ġj e
Ã¨r sia
Ġcicl istes
Ġconcent rat
Ġapro p
in itat
Ġ14 0
ĠNorm alment
Ġrebaix ar
Ġy ou
Ar quitec
AC T
Ġreivindic at
Ġsocio econ
ĠNO U
Ġpres encial
g ir
Ãłr dies
Ġver tad
ĠM IT
ĠLla tina
Ġll op
cab ulari
emp rened
Ġab us
ĠSant os
ĠArquitec tÃ²nic
L l
Ġab aix
Ġpo Ã¨tica
Ġvis uals
Ġsof t
assump te
Ġgerm anes
ĠH au
Ġcons istent
c ert
Ġsemb li
ur ats
toc ol
ĠM y
ĠAle jandro
ĠUnivers al
Ġaug mentant
ĠConf ess
Ġver dad
rar ia
Ġc eba
Ġsupos arÃł
ĠA ri
Ġarrib in
Al c
an gel
mir all
N i
Ġcl andes
ĠFil ologia
ĠSa ura
ĠNo ta
Ġtanc ades
ĠS all
Ass ad
Ġne f
Ġexperim ental
loc at
int urÃ³
di ta
Ġafir maciÃ³
ĠT ren
ĠEntre vista
Ġag reu
ĠP esca
Ġdes bloc
Ġen lles
ĠSub s
econ om
Ġexpl orar
Ġt Ãº
C or
× Ķ
Ġb ret
Ġsorpres es
di u
ĠD alÃŃ
Ġf Ãłrmac
Ġprefer eix
U AL
ĠV ist
ĠM AT
Ġreal ista
or regut
apro var
Ġol or
Ġnarra ciÃ³
Ġp siqui
Ġinspir at
Ġan alitz
ĠCal ella
Ġos ten
ĠCiudad anos
Ġtal ls
Ġproduc tora
Ġoc ul
Ġactu alitzaciÃ³
Ġo x
Ġrod atge
ĠLl uc
Ġempres onats
Ġpron uncia
ĠsÃ² lid
Ġfer mesa
ad hesiÃ³
ĠSc hool
ĠCon g
Ġfer en
ĠRo da
vi o
Ġre tu
ĠIn teg
ĠPressup ostos
pu ig
Ġactu ant
an ci
ĠGu ard
individ u
ant o
Ġactiv ar
lustra cions
ma u
Ġprotagon itzada
k m
Ġtut or
m iques
ĠMin istres
Ġdesbloc arÃł
Ġref res
ĠH ora
Ġexperim entat
Ġdu el
ĠR omÃł
ĠestÃłndard s
ĠBes Ã²s
ĠAr m
Ġpi anista
ĠEspa Ã±ola
Ġfactura ciÃ³
Ġm uc
h r
Ġfor tament
Ġe go
Ġsubrat lla
Ġdis si
Ġprec edent
ĠC rea
Ġam ist
ĠB ÃŃ
Ġpass o
ĠBor ja
ĠC P
de a
N osaltres
Ġamp le
ĠS ANT
ĠEdu ardo
ĠBarcel Ã³
Ġfin alitza
Ġaf ortun
Ġvac un
ob by
em et
omb res
Ġinvi taciÃ³
Ġconcent ra
o a
Ġima gina
Ġcinemat ogrÃłfica
Ġar xiu
Ġrebaix a
Ġtorn o
ar tic
fic arÃł
ĠCons tan
ĠPe tit
Ġlle var
Ġal ien
Ġent esa
p Ã¨
Ġconver teixen
Ġmot os
Ġins erciÃ³
Ġdescar tar
ow n
ac tiva
Ġt elecomunicacions
ĠE i
ur Ã©
ĠinÃº til
mig raciÃ³
Ġprotagon itzar
Ġins trucciÃ³
Ġdeci siu
Ġam able
Ġb ud
ĠJo h
til lo
erc ats
Ġtorna va
Ġpropor cional
? -
Ġmun tany
ĠfÃłb riques
es tats
ov ent
Ġmon umental
Ġb rin
Ġpertin enÃ§a
et nam
Ġop inar
Ġdimi tir
ĠJx SÃŃ
Ġatribu eix
Ġnom en
ĠF ire
ĠB allester
Ġcob ertes
escol ar
Ġin v
Ġus at
qu atre
ep is
am ic
oti ps
ĠC han
Ġmal e
Ġarrib Ãł
enf rontar
Ġindign aciÃ³
E V
ĠJosep h
b el
ĠCon eixement
ĠdÃ© us
on tre
n cies
ĠD O
ĠChac Ã³n
Ġresid Ã¨ncies
infra estructures
Ã ª
Ġ193 3
Ġpreson ers
ĠalgÃº n
Ġar mat
Ġestim ada
C R
Ġmar ina
Ġmat x
Ġescla tar
ĠcÃ¨ le
ĠMet ro
acus at
Ġp Ã¨
Ġen de
Ġcirc ula
Ġcarrer es
Ġtre uen
Ġparla ven
Ġdetall ada
Ġmi queta
Ġven e
Ġre vÃ©s
ĠH eu
ĠIb Ã¨rica
eg Ã¼
AT GE
Ġcompar tim
Ġperfec ciÃ³
ĠPro pos
ĠJ udi
ĠVall adolid
y D
Ġsup eren
ar Ã©
Ġimpossi bilitat
Ġ( '
Ġan irÃ©
Ġb eguda
Ġparla ments
G P
ĠFor Ã§a
ĠCirc uit
ĠMun tanya
ĠcÃłl culs
Ġflex ibilitat
Ġfot oc
esc ultura
Ġautor itzat
Lle ida
ĠE quip
Ġcon reu
ÃŃ fers
cicl op
ĠZ ara
Ġof en
ac le
T ube
/ ...
Ġan omena
ĠO f
Ġ194 8
Ġca fe
man ent
ĠM Ã©
Ġgovern ant
ĠAlf red
Ġinnov ador
ĠprÃ²r roga
Ġassum it
Ġfuncion alitat
ĠI MP
ob ert
pi da
or f
Ġfinal istes
Ġpromot or
Ġâ Ĩ
Ġmu tu
ĠT op
ĠR EC
Ġrec ur
ĠPsic ologia
Ġcompet ents
u alitats
Ġsig na
Ġpermet ran
ut m
Ġinf la
Ġaj orn
Ġmol Ã¨sties
Ġsup rimir
ĠSalam anca
Ġf ans
Ġam o
Ġmati sos
UP V
ĠTrÃł nsit
Ġedit or
L os
leg ant
ĠencapÃ§al ada
Ġhum il
En ginyeria
Ġenvi ant
ĠPre venciÃ³
G B
c arÃł
Ġactu alitzada
Ġvin ya
Ġa udiÃ¨ncia
P el
Ġvost Ã¨s
Ġmon itors
Ġfabric ants
Ġaut obusos
vant es
Ġmon edes
al b
Ãłp ols
Ġesta rem
ĠPod er
Ġimm ers
Ġma ca
Ġdesp legar
Ġex ili
Ġcarden al
Ġve urÃłs
Ġprom etre
Ġcontinu em
ĠPro p
obi le
aband onar
Ġarquitec tura
Ġsub m
Ġllibre t
and Ã¨s
Ġcomb inat
Ġv enti
ĠM onestir
Ġpa tim
Ġtrob arÃł
L o
ĠGre en
Ġpres enti
Ġ //
re dit
Ġdub tar
Ġfib ra
ta gram
Ġad mira
Ġob rera
ĠFern Ãłndez
ci pa
Ġdob l
Ġ196 2
DDDD DDDD
Ġavant pass
Vol em
ob lida
ent ÃŃ
ĠV entura
Ġquar antena
o rem
ĠK ing
Ġtoler Ãłncia
rid ge
Ġllum in
Ġfabric ar
execu tiva
Ġconv o
lan desa
en cies
Ġtrasll ada
¸ ı
Ġdos i
ing er
Ġc il
Ġfil ms
Ġderi vat
h ola
Ġgerm an
Ġmed alles
Ġama gat
Ġcomod itat
Ã³n ica
Ġsub has
op ia
ok ies
Ġj erar
Ġs ospita
cion aris
Ġdiscul pes
Ġespeci alitats
Ġver des
ĠVila web
Ġeix ir
exper ts
ti fica
oc e
Ġdo tat
Ġe ficiÃ¨ncia
ĠB BC
Ġfin ques
Ġindis crim
ĠRaf el
ĠO rig
Ġobser vat
Ġsegu iran
Ġrum ors
af rontar
Ġvul gueu
si er
ĠCOM P
Ġv it
tin i
g et
Ġd otacions
Ġmarx at
Ġpr oli
Ġdibuix ar
ĠÃĢ sia
ĠHoll ywood
Ġreb els
Ġsuper fÃŃcies
ĠBor ges
Ġte Ã²ric
ĠD ÃŃ
Ġma il
Ġab ord
Ġap od
los os
Ġam an
ĠLl op
Ã¨ tera
ed ora
ĠCan didat
Ġ8 4
ĠÃĢ frica
itu al
horitz Ã³
Ġassegu rant
ista s
Ã¨ tua
ap ole
ĠSi gui
Ġ8 2
Ġproteg its
Ġcomp tava
Ġar reglar
er cat
min ent
Ġconser vat
Ġhoritzon tal
ine a
E di
Ġtrob i
ĠAl menys
Ġex ec
ĠCad asc
ĠB ach
Ġurban ÃŃstiques
Ġfa cis
ĠProjec tes
ĠDim arts
Ġdol enta
ven a
Ġamb ul
ĠEscol ar
ĠHer ria
Ġdesenvolup ada
Ġpropos o
ĠK han
ĠRipoll Ã¨s
Ġv egu
Ġin ci
ĠSec tor
Ġrevel ar
Ġcontr ar
ï ¸ı
os ca
ĠN Ãº
Ġnec es
Ġincre mentat
Ġbis bes
in dex
labora cions
c eb
Ġdescon fi
ci u
ĠLux emburg
ĠEx ecutiu
Ġlli gar
Å į
T I
abs ol
Ġ12 5
di f
l ad
olÃ²gica ment
ÃŃ lica
Ġt v
Ġimplan tar
Ġtin ga
Ġtind rien
Ã§ o
assol ir
ar xi
ĠÃ¨ tica
Ġ9 6
Ġdisfru tar
Ġb og
Ġviat ja
Ġdes titu
anta da
Ġmem Ã²ries
Ġnasc uda
Ġcontribu eix
ins trucciÃ³
Ġapro vades
Ġconfir men
Ġirregular itats
v ill
all orca
Ġdispos em
Ġp urament
Ġarquitec tes
ir ats
El x
Ġpau tes
ĠF en
Ġpu guis
Ġp ins
ĠCl ot
Ġ ----------------------------------------------------------------
Ġengany ar
Ġsol es
Ġcic lista
Ini cia
legi ats
Ġcol omb
Ġdinam itzaciÃ³
Ġhomosex uals
Ġant rop
ĠS Ãł
Ġp ud
Ġvo tarÃł
z Ã¡
esp oli
Ġclassi ficats
Ġob rers
ĠSolid Ãłria
Â¡ Â¡
Ġd urs
ĠcomenÃ§a ments
Ġin e
Ã² liques
des prÃ©s
Ġges pa
Ġeng egar
Ġins tÃłncies
e acute
Ġimperi al
ĠA ur
Ġexcep cions
Ġsuggeri ments
ora bles
Ġaerop orts
ĠG ala
adap tar
Ġinquietu ds
Ġimp u
Ġapren ent
en orm
Ġselec cionats
Ġvehic ular
ĠBol onya
Ġca ma
gun t
Ġhipot ec
ĠS elecciÃ³
Ġset ze
ĠIn t
Ã¨r cits
Ġob ertura
rig o
Ġco vard
ell ades
Ġtert Ãºlia
Ġmaj Ãºs
ĠEs tava
Ġor na
Ġinstr umental
fi eld
Ġad hes
ĠN ar
Ġveu reu
ĠX D
Ġval entia
ĠBenefici ari
est Ã¨tica
Ġeva cu
Ġmar ÃŃ
Ġsenti mental
ĠAdministra cions
Ġexter nes
uc le
lo ca
Ġdiss enys
Ġnega tives
Ġvege tal
Ġ ucra
Ġsegu ia
Ġter Ãłpia
ĠH arry
Ġflamen c
Ġpa timent
que jar
Ġfa tal
ĠVatic Ãł
Ġcompl ements
Ġseny alitzaciÃ³
esc alf
Ġcob ren
Ġfacili tant
gan istan
utilitz aciÃ³
Ġtraduc tor
Ġab ertzale
Ġparad igma
Ġacab em
ĠFin ances
ĠRe vista
Ġf el
Ġdem Ã²crates
Ġata cat
Ġaplic ada
ĠF eu
Ġtro f
aut Ã¨n
Ġk arma
Ġrela tius
Ġcontra dicciÃ³
ĠÂ °
Ġendar rer
Ã¨ri t
oli va
i ro
Ġsot er
te jar
Ġcan Ã³
Ġvari ar
ona ires
in ho
Ġinflu ir
ĠHist Ã²ric
Ġmor f
pia ciÃ³
ir is
ĠFra ga
ĠL GT
ĠB AR
ral tar
QU ES
Ãłg ina
Ġest Ã¨s
ĠC ot
in de
Ġ196 6
T J
ĠRe y
Ġ8 7
Ġdeman arÃł
Ġempres onat
ĠRod alies
Ġdirec cions
ti bilitat
ĠC B
ĠM assa
ĠSol Ãł
ĠMod ern
Ġmou en
d als
Ġ194 4
ĠVilad ecans
Ã¨ re
Ġdispar at
ĠCan et
Ġpoll astre
on ge
tr Ã²nica
s indic
Ġactu alitzar
Ġpresid eix
IN S
Ġcan ad
re fer
at z
ĠAm or
le tic
tat us
Ġtar ann
Ġcons orci
Ġcr uÃ¯
re cia
Ġimp resa
Ġb ola
Ġdes via
activ aciÃ³
Ġsuper visiÃ³
ĠR TV
ĠTa mb
Ġens enyament
Ġ1 01
ĠAn nex
ĠL og
Ġll og
ĠG airebÃ©
Ġacostu men
ĠtÃŃp ics
Ġmagis trats
Ġm eg
ĠD onar
Ġbo ig
Ġpob lat
Ã «
met ratges
mp es
ĠE p
anes a
Ġbesti ar
Ġnervi Ã³s
quip Ã¨dia
Ġap unt
ga va
Ġexper iment
fi gu
Ġlleug er
In novaciÃ³
R ac
ĠQu ar
Ġblog s
Ġnecessi tava
itz i
ĠS talin
Ġtur ÃŃstiques
emma gatzem
Ġam ant
res pon
Ġrepresenta da
Ġciu dad
Ġguard ons
Ġ193 2
ĠM AN
F er
ĠAmb iental
Ġpersegu ir
Ġcre gut
ĠN atura
ĠM EUR
ĠR y
is tic
Ġin jec
ĠTi pus
Ġbus cat
Ãłn dols
ro id
independentis tes
Ġinc Ã²m
Alcal de
Ġdivi dida
Ġmillor ant
ĠBil du
t Ã³
ĠPob lenou
Ġsuperior itat
Ġdi Ã²cesi
Ġ Ã²
Ġop ina
Ar ts
on ent
ĠL oren
Ġimplic at
Ġ7 9
Ġtempor alment
ĠHen ry
incorpor ar
Ġglob alitzaciÃ³
ran is
ĠD in
Ġn Ã²m
Ġpost grau
Ġp eb
vers a
ĠNeg re
Ġa eri
co re
ti Ã³
Ġsetman als
ĠYou Tube
Ġquir Ãºr
Ġvene Ã§ol
Ġinteg ren
ĠEx teriors
ĠO N
ĠMargari da
j al
ri ll
Ġtip ologia
ã ĥ
Ġpriva citat
ĠMar Ã§
Ã²s tics
Ġculpa bles
adequ aciÃ³
. @
ĠW ar
Ġinf l
Ġaten ent
Ġradia ciÃ³
Ġpla y
ĠF lo
ugu et
exc ur
ul les
Ġsubs tÃłncia
ĠSimp lement
ĠC Ãłn
Ġescol lida
Ġinclo Ã¯a
Ġcons isti
tad ans
est em
ĠFil m
AD ES
Ġbi om
Al guer
Ġrecomp te
Ġimp unitat
Ġbar ranc
ĠcontÃŃn uament
Ġexig it
Ġvaria ciÃ³
s Ãł
of ensiva
P rim
Ġpl enari
Ġsocial dem
ev als
Ġpon ents
ĠC is
ĠcÃŃ vic
Ġrequeri ments
Ġpresump tament
ĠCal vo
ĠCatal an
Ġcan tants
Ġcon d
R eg
g all
ĠvÃł lida
B en
Ġcorpor al
ss on
Ġderro tat
ĠExpl ora
Ġterres tre
Ġs ender
l ula
Ġaf any
Ġimpuls ors
Ġgrand Ãłria
Ġpass in
ĠT am
Ġfi anÃ§a
Ġar mats
ver t
Ġpet Ã³
Ãĩ A
ont o
er ina
fi cia
Ġesta bilitat
qu ali
Ġlleug era
lici tats
Ġ196 4
ĠEx posiciÃ³
apro pi
/ ?
Ġdon o
ex plicaciÃ³
ag n
ca ments
v s
ĠSem inari
Ġmi reu
ĠAc adÃ¨mia
ĠPro vÃŃn
Ġdig nes
Ġtr istes
ul li
Ġos sos
Ġdes mant
ers on
Ġtel a
sobre tot
l ular
escrip tora
qu isi
Ġconc edida
Ġcompleix in
Ġemp ortar
eri Ãł
ĠDemocrÃł tic
Ir landa
ĠÃºltima ment
Ġserv eixi
ĠMol ta
ĠmÃłxim es
M arc
Ġp Ãłr
Ġpe tar
ĠN Ãłpols
Al fons
ĠBar b
aprofi tament
ĠB orn
ĠCol ls
Ġtran si
Ġprocla mat
dipu tats
Ġc eller
ĠRic ardo
Ġind icacions
ĠIn forma
Ġp ad
Ġcon gressos
ĠPic asso
Ġart ÃŃstics
egem onia
E du
Ġinvers ors
hab ilitat
ĠSantan der
EN CI
ĠS k
V il
Ġguard onat
ĠCre aciÃ³
Ġinterna cionalment
Ġcomplement Ãłries
pos t
ec ciÃ³
Ġcon tar
Ġacum ula
ril lo
Re dacciÃ³
ĠgratuÃ¯ ts
objec tes
Ġbas ant
Ġesc ric
Ãłrbit re
Ġsur re
Ġorgull Ã³s
ĠC Ã¨sar
Ġimplem entar
is sion
Ġllibrer ies
A ula
Ġcoloni al
ĠV eig
ĠmÃ¨ dics
Ġn Ãł
Ġnota bles
mÃł tiques
Ġcal enta
Ġca uen
Ġcog ni
Ġp ix
Ġr on
Ġdesig nat
Ġreb udes
Ġconform e
ĠRecord o
Ġes trat
3 24
Ġ196 5
ĠtomÃł quet
Ġencar regada
Ġment res
Ġpl anes
lla Ã§os
l ador
pl ana
Ġmassi u
Ġocup ant
Ġdi visions
ĠcÃ²mp lic
P uig
ĠveÃ¯ nat
Ġk e
ĠQue da
Ġbar bar
om inaciÃ³
ĠT ari
Ġcal aix
Ġta par
A quÃŃ
ĠMitj ana
ER N
s om
Ġan gl
Ġparticipa tiva
ĠAr c
Ġfot ut
Ġag Ã¨ncies
Ġtrac tant
de d
Ġfar ina
Ġtras torn
Ġescla us
Ġcirc um
ĠfÃŃs icament
k en
Ġpertin ents
op ol
Ġburo c
an ga
Ġmo tiva
eb ron
il o
Ġali at
Ġfabric ant
Ġdir an
ĠInd Ãºstria
ĠV inar
Ġcal ef
Ġsupos aria
Ġdefin eixen
soci etat
Ġfor ats
dal ena
Ġbanc Ãłria
instru ment
ĠV ent
es pi
or er
Ġescol ta
Ġaconsegu ÃŃ
Ġrodal ies
ed ra
Ġmadril eny
Ġtrac ti
Ġetc Ã¨tera
tes sin
Ġbru ta
Ġcr Ã²niques
Ġcas at
Ġmen uts
ĠM and
Ġviol ent
Ġtor os
ĠSha k
OL A
j es
Ġdepend rÃł
Ġenc an
ĠA T
ÃŃx ols
Ġimmobili Ãłria
Ġcirc uits
Ġmalvers aciÃ³
Ġ8 1
Ġcir urgia
Ġs ots
Ġforma ven
Ġrom Ãłnica
Ġtorn s
ĠqÃ¼esti onar
oc es
Ġd rac
ĠPor ts
le ge
ĠRe dacciÃ³
Ġescoll its
Ġbio diversitat
egu i
ĠES T
Ġpos aran
Ġa ugu
ĠI P
C l
Ġori enta
Ġra pidesa
' )
Ġtarann Ãł
ĠMar ÃŃn
Ġal e
Ġjo ies
ĠNov embre
Ġma quill
Ġocup ats
ĠRes ulta
Ġacomi adar
es ten
Ġfitx ar
C O
ĠquilÃ²m etre
ana va
Ġju eva
Ġm ori
Ġatura da
Ġacab ats
roc k
Ġanti feix
Ġconvi ure
Ġte ulada
ĠestratÃ¨ gics
ar tes
ĠUnivers ity
Ġan Ãł
Ġemp rat
ĠRu fi
Ġve ien
ĠIn i
gan ts
cas tell
j ador
ĠPla y
Ġcer cles
Ġcoron el
Ġconc ession
ĠDis pos
Ġgest os
' :
Ġmaj ories
j aran
jun t
Ġpens ada
Esc Ã²cia
ĠAl lÃ²
d r
Ġqual ita
fic s
Ġ9 8
ar re
Ġcas ament
Ġvo cabulari
Ġw i
imp ostos
Ã²x id
Ġvota da
Ġcap g
ĠsÃŃn drome
ĠP ala
ti ra
Ġjo ia
Ġdetal la
Ġacostu mats
ĠCamp anya
Ġex amen
ac o
Ġcon ya
ĠV ig
Ġpesc adors
Ã²m etres
Ġb ilat
ĠB B
acompanya ment
ar te
Ġre val
ĠcÃ²m ics
Ġcon y
ĠHum an
z en
Ġent rarÃł
ĠAn y
urban itzaciÃ³
Ġen ques
Ġp int
z quier
ica go
ĠEx cur
Ġdicta men
Ġmoder nes
rom pu
Ġplani ficar
Ġclaus tre
ĠP ad
Ġful ls
S a
Ġreser var
Ġpropi etÃłria
Ġexerci t
p otser
ĠLea gue
d ent
Ġ19 18
Ġins in
Ġpun x
ar y
Ġa i
tari at
atura da
ĠUd G
ĠHab itatge
ĠtÃ²p ics
Ġha bl
Ġpol ar
Ġtas t
Ġindemn itzaciÃ³
Ġra Ã¯m
v adors
Ġdestac ant
o tisme
ed en
Ġporta des
ĠPar is
emp ara
Ġcinqu antena
ĠS Ãį
Ġsab ates
Ġalcal dessa
ĠCer vantes
a tar
u at
urg os
Ġsa ga
Ġtop Ã²nim
Ġmat emÃłtica
ĠdemocrÃłtica ment
ĠdÃ¨ ci
Ġsup eraciÃ³
ĠG or
Ġre men
gen da
Ã²l it
Ġajud arÃł
tu ari
ro ja
Ġpresidi da
ĠTrans port
! ".
teri es
ass ocia
ms terdam
ĠMan comunitat
C L
Ġmadu resa
Tarra gona
Ġll Ãłg
Ġportu gues
ĠG EN
agaf ar
ĠRecord eu
ĠAC T
Ġdesc Ãłrrega
Ġmanip ular
Ġl enta
Ġvol ant
Ġpres ta
Ġpassap ort
Ġmodern itat
Ġagaf ant
Ġinj ust
Ġ196 3
ĠS es
Ġseu re
fic ador
actu alitzaciÃ³
esti m
Ġcom tes
Ġa re
Ġll ops
Ġparlar Ãł
Ġcomp ostos
Ġ> >
Ġ19 29
ĠG remi
ĠPr ÃŃncep
V er
Ġi ra
Ġat mos
afeg eix
lex iÃ³
Ġcon re
vant e
ÃŃ ria
a fer
Ġester e
Ġob ro
at zar
ĠW al
elec torat
de deu
Ġson ar
ilia ciÃ³
Ġ11 2
Ġref re
Ġ ----
Ġprocess Ã³
Ġcord es
n n
l ina
organitz acions
ĠDi pl
Ġbal cons
Ġgui ada
ĠFer ro
ĠS istemes
Ġhom enat
li g
Ġaler tat
Ġllic enciat
Ġconfigu rar
Ġsegui rem
catal ana
Ġprofession alitat
Ġsucce Ã¯t
Ġdesig nar
ass eny
Ġp p
ĠS oc
Ġtitu lacions
c era
on et
ĠE dicions
Ġcu inar
el it
Ġprocla ma
Ġs ants
tr als
ess ora
Ġiron ia
Ġadministra dors
Ġ8 6
og en
Ġfot ografi
ĠE ren
wit te
ĠK h
ĠRo yal
Ġpil otes
m ons
Ġn ar
as tres
Ġtornar em
ĠUd L
Ġcar ro
Ġcab al
Ġpot encials
an desa
ĠS ou
ĠaÃ¯ llat
Ġa Ã¨ria
n ess
ĠGu ÃŃxols
ĠCE O
incid ent
ll ada
ĠANY S
Ġeti que
Ġcor ren
Ġinterpreta cions
l adors
ĠR ou
Ġarquitect Ã²nic
Ġevi tant
ĠD ur
Ġdoc tora
Ġaut oma
Ġinclo urÃł
Ġrit mes
T RA
Ġpros tituciÃ³
Ġdegrad aciÃ³
Ġp ant
Ġatura des
a qui
Ġment restant
Ġar gentÃŃ
inform ar
Ġjusti ficat
ĠPob let
Ġnecess ites
Ġsex ualitat
gat ori
ÑıÑĩÐªÑıÑĩÐªÑıÑĩÐªÑıÑĩÐªÑıÑĩÐªÑıÑĩÐªÑıÑĩÐªÑıÑĩÐªÑıÑĩÐªÑıÑĩÐªÑıÑĩÐªÑıÑĩÐªÑıÑĩÐªÑıÑĩÐªÑıÑĩÐªÑıÑĩÐª ÑıÑĩÐªÑıÑĩÐªÑıÑĩÐªÑıÑĩÐªÑıÑĩÐªÑıÑĩÐªÑıÑĩÐªÑıÑĩÐªÑıÑĩÐªÑıÑĩÐªÑıÑĩÐªÑıÑĩÐªÑıÑĩÐªÑıÑĩÐªÑıÑĩÐªÑıÑĩÐª
Ġimmob les
Ġocas ion
Ġminim itzar
Ġadolesc ent
Ġanim at
E dit
ed uca
Ġcess ament
ĠFem en
S up
Ġimp ost
ĠRec tor
ĠS ci
Ġcat Ã²lics
Ġtrob ant
Ġamp la
ĠJuli o
ĠP uc
Llu ÃŃs
p le
ĠE qu
n ing
au x
Ġcontinu aran
Ġres tants
ĠTen int
Ġincid Ã¨ncies
Ġins pi
Ġp neu
Ġretribu cions
Ġnatur alment
Ġvo ti
ĠSic ÃŃlia
ĠÃ ĥ
Ġfanta sia
Ġesta s
Ġcul tiv
Ġ195 9
Ġgenoci di
Ġproli fer
Ġarren car
Ġamena Ã§ar
ar eu
ĠP robablement
Ġinnov adora
Ġ194 1
-- ,
Ġre pos
Ġdecad Ã¨ncia
ĠJ uliol
Ġg om
Ġmass ac
al li
ĠcadÃł ver
Ġca gar
Ġconfir maciÃ³
ĠIn tel
Ġmu y
di men
ĠN ivell
Ġcuri osa
vel liment
Ġra j
ĠC AL
ĠM anten
Ġti ene
p Ãł
cion arÃł
Ġal ber
Ġcomun i
Ġb ÃŃ
ĠVin ga
estr ella
Ġcontes tat
Ġmi rem
ĠRe uniÃ³
Ġinter medi
Ġaf lu
assegu rar
ĠgratuÃ¯ tament
ĠB ones
ĠMas car
Ġfemin istes
ĠMa Ã³
Ġcondu eix
ocres ia
Ġesta di
Ġfrac tura
ĠprÃ©stec s
ĠS mith
Ġescol tant
Ġobli d
ĠCatal onia
an ul
Ġselec cionat
Ġhid ro
ĠI van
Ġno tari
organitz en
Ġapreci ar
immig raciÃ³
v ens
Ġrepe tit
S ol
Ġconnec ta
for ums
Ġb arcelona
Ġinten si
Ġdic e
Ġnorma tives
ĠAb d
ĠVa ja
Ġsignifica tius
j us
ĠPa ula
Ġalim entar
S egu
all era
Ġr ara
Ġimm ens
j anÃ§a
Ġcab uda
Ġros tre
emiss ora
Ġservid ors
us ions
ci nat
Ġrela ciona
independentis ta
ĠBan ca
Ġar m
Ġsusp Ã¨s
Ġespeci alitat
Ã²s tia
ress ors
ĠI ES
Ġarquitec te
Ġpe di
Ġde vas
ĠMil let
on im
B er
E usk
Ġperjud ic
Es taciÃ³
rid s
Ġapro vats
f s
Ġam os
re tar
ĠCon tac
Ġtrans ports
tre ball
ĠOb ra
ĠcarÃłcter s
v egeu
Ġpromo guda
Ġdeleg ada
Ġbut lle
Ġservi ci
ĠZ a
Ġob rer
it os
ĠEs ports
rang ers
Ġrib a
ul d
inclou en
acter is
Ġsecund aris
Ġt ril
Ġfu gida
Ġmad rid
ĠF ruit
Ġap lega
ĠFor ces
Ġac red
ĠD ub
Ġposici onar
Ġconver siÃ³
Ġcos tan
Ġcontrol ada
Ġbatal les
exc onseller
Ġsec torial
plu gues
ĠA pple
E d
Ø§ Ù
Ġp Ã²s
Ġat letes
Ġqueda ven
ĠLis boa
ÃŃc ula
Ġjug adores
tu ro
Ġpreser vaciÃ³
Î ¼
ĠPasqu a
ĠP ineda
al et
equi val
ĠValenci anes
Ġsucce eix
Ġobs tacles
um an
Ġto quen
Ġse tena
Ã© c
aut ors
gos tera
ĠB osc
Ġevid ents
Ġglob us
ĠNo ves
ĠC AC
Ġfol re
ĠSan g
Ġec olÃ²gics
cab a
on er
Ġma tis
erra ment
ĠJa zz
ĠPav ellÃ³
Ġmar quen
L P
ĠH avia
vis tar
Ġg enti
Ġcontinu Ã¯
Ġdom ina
Ġesp at
th letic
ĠT es
cin g
ci des
ri tas
ĠMar xa
ĠP oll
l on
Ġbo us
eny or
F or
c ont
Ġn Ã²r
Ãłn ies
fic e
Ġent end
Ġf rom
Ġassenyal en
ĠB assa
ent em
Ġass istent
ex t
ĠNos tra
Ġestr enada
ĠStre et
ul mÃł
Ġof ensiva
Ġitiner ari
Ġcamp anes
Ġaproxim aciÃ³
Ġconsta ta
ĠvÃł lid
ro ts
Ġinspec ciÃ³
Ġsimpa tia
Ġa camp
ot ges
Ġat rop
ĠS y
inver sions
Ġpost guerra
Ġfitx atge
ral ada
Ġenc antat
Ġaf iciÃ³
tor o
Ġdi guÃ©
Ġnos tÃłl
a usteritat
Ġmin ories
ĠRib Ã³
Ġtele fÃ²nica
Ã§ ala
Ġre met
AV E
Ġ195 6
Ġsoft ware
ĠTra ducciÃ³
ĠJoh ns
ad eria
esc o
id Ã³
fer es
ĠEs tr
esc ri
Ġrela ta
Ġeleg ant
Ġin Ã¨dit
Ġtele fonia
Ġafirma cions
is te
Ġradic alment
Ġisraeli Ãł
n aciÃ³
Ġrec tificaciÃ³
Ġpin ya
Ġexp ansiÃ³
se qui
Ġcavall er
espanyol s
Ġmedi evals
Ġgest ors
ĠC anÃ§
Es tats
m u
Ġdiagn ostic
ĠI tal
Ġpatrimoni al
ĠUr ban
tiv isme
ĠFl orida
Ġinjus tÃŃcia
s ic
Ġrepar tits
Ġrecoman aciÃ³
ed Ã²nia
Ġrenov at
ĠMont g
Ġt Ãłctica
ital iÃł
Ġbrasil er
Ġg Ã²tic
Ġpertany ent
ĠBar ra
ĠCent er
Ġ9 7
Ġviol ÃŃ
Ġenorm es
O TAN
si etat
ĠU craÃ¯na
ĠSecund Ãłria
Ġassist encial
Ġsum ant
ĠM Ãº
ĠC up
no w
Ġtr ista
Ġgener ant
ĠB olÃŃ
Ġrespec tant
Ġoper adors
Ġtecn olÃ²giques
Ġne ts
Ġgu Ãłrdies
ER M
Ġper ll
ang eli
Ġoptim ista
ĠR onda
ĠÃ ¡
Ġtrob aran
ĠVinar Ã²s
esc lat
Ġsu ec
ĠFer rocar
F ins
en ll
Ġcarb Ã³
Ġdu resa
ig Ã¼
f und
ĠBut lletÃŃ
Ġin du
Ġsacerd ot
Ġcomp ondre
Ġtrans forma
exper im
Ġsi guis
Ġer ig
Ġdes truc
Ġcomplem entar
ari b
re tÃłria
T erra
Ġreun irÃł
de ta
Ġcaracter ÃŃstic
AS A
ĠBern ab
i ti
EP END
o C
Ġprogra mar
ĠA S
ĠF ilip
enorm e
ĠGl Ã²ria
Ġgra cies
ĠTreball adors
ara ta
Ġa ran
Ind Ãºstria
ĠTecn ologies
ies portiu
Ġsimb Ã²lica
Ġdel iber
Ġass equi
ĠIns tal
ĠX imo
ĠMin istre
ĠM I
ĠÃ²p tica
ĠAc te
Ġtri gar
Ġinterna cionalitzaciÃ³
Ġdin er
ĠEdit orial
ĠIma gin
Ġexpuls at
Ġb ou
ĠCa pa
Ġfals os
Ġve uran
ĠComp tes
ĠCoordin aciÃ³
Ġf art
Ġaux iliar
Ġgui onista
ĠgratuÃ¯ tes
Ġconc essions
Ġleg ÃŃtima
Ġpot ents
rel aciÃ³
Ġcre gui
R O
ol lar
ĠBus quets
Ġvi venda
Ġf li
ĠCon trac
Ġde voluciÃ³
ĠMag n
Ġest Ãº
ot ecn
ĠO ri
Ġcontund Ã¨ncia
AM PA
ex plic
Ġloc alitzat
Ġal cohol
ĠAc ÃŃ
tad os
Ġbi ologia
Ġpre d
Ġatrac tiva
Ġcu ando
Ġtamb iÃ©n
Ġgiron ins
ĠCÃł tedra
Ġverm elles
Ġintrodu Ã¯t
Ġdi guÃ©s
Ġampli at
Ö ¹
Ġ9 4
ĠP OL
ĠCl assi
m ics
Ġsol dat
tr y
tar s
ni e
Ġcor atge
ĠS w
ĠCarrer as
ĠOc upaciÃ³
ch er
Ġviv Ã¨ncies
Ġcur tes
Ġimplic ades
ĠdemagÃ²g ia
ĠLl ista
h s
Ġfrus traciÃ³
ĠM ons
Ġrecorda va
Ġlog ÃŃstica
ĠTerritori als
l og
IC O
Ġenfron tament
ĠV ega
ofer eixen
ĠCo incid
emb er
i tinerari
Ġandal Ãºs
voca cia
Ġtel emÃłtica
ro ver
imp res
ra d
ĠS to
Ġelabor ats
Ġmultim Ã¨dia
Ġgaran tit
ĠDen ominaciÃ³
er em
Ġsant uari
Ġde teri
A p
Ġx il
Ġ16 0
Ġaut ora
Ġ194 7
Ġdiv uit
Ġprojec cions
ver de
ĠfÃ²ss ils
ici o
Ġexpuls ar
199 5
ĠPod ria
M al
Ġgro cs
ir s
ĠC OP
Ġtorn Ãł
ĠMer kel
Ġten nis
ag ents
Ġpreocup at
Ġdial ecte
ĠCap ella
enfron ta
Ġpre ca
Ġcomprom esa
Ĵâĸ Ĵâĸ
te a
Ġdub t
ĠRet witte
tori als
Ġperill osos
ĠP reu
B a
Ġdepend ents
qu eres
A z
a pos
omp te
ej os
ĠCoopera tiva
Ġg in
Ġemerg ents
Ġexc lou
Ġcorrespon dÃ¨ncia
ĠperiÃ² dic
Ġenginy er
ĠmÃł gica
Ġe gip
Ġgreu ment
Ġdis sim
Ġban queta
ob lit
rim a
A ro
er ussa
cis siÃ³
l Ã©
Ġevi ta
ĠD er
ir en
Ġespeci alitzades
Ġcom iat
Ġresta urar
uta ri
Ġdos is
Ġform igÃ³
Ġco ix
rÃł bia
Ġsec reta
Ġen gres
Ġindic ant
Ð º
ĠSa gunt
u an
Ä ģ
ĠC rom
Ġgener ositat
Ġesc Ã³
ĠPrincip al
ĠOrganitz aciÃ³
âĢ ²
r r
Ġp ira
× ľ
Ġexecu tiva
Ġdavall ada
Ġde rec
Ġconsider ant
ÃŃfic s
... ?
ĠKos ovo
ĠperiÃ²dica ment
Ġfir mes
ĠOli va
Ġnasc uts
Ġro ton
Ġvota ria
Ġmat ernitat
Ġro dar
ĠPi erre
Ġobri rÃł
ent ri
el le
Ġa udit
Ġconsider ades
romp ut
ĠC any
Ġrecla mant
ĠMar ÃŃtim
Ġres ten
i Ã³n
Ġb uen
par ta
Ġde por
ĠIn vesti
Ġpsic olÃ²gic
Ġtir at
Ġpermet ent
ĠEs tratÃ¨
at ria
Don cs
Ġpub li
Ġdef ectes
ec e
id os
Ġlle us
Ġcont rov
ĠPed ra
J EI
Ġconvid em
Ġpub liquen
Ġ195 7
ĠD OS
Ġesta des
Ġrecons truir
Ġfot ogrÃłfic
Ġre us
Ġentrena ments
h ort
Ġprefer eixen
ĠBas har
Ġinflu Ã¨ncies
m ia
ĠSal v
Ġaf ores
Ġvirtu ts
acredi taciÃ³
Ġdi Ãłries
Ġprevis ible
Ġpes sim
Ġfir mar
avor tament
Ġpa quets
ug os
Ġco i
Ġbaix ant
en siÃ³
ĠCas tel
u ria
Ġali ances
g aran
Ġcamp ament
z ina
es pa
Ġtaul er
Ġmol ÃŃ
uu uu
Ġmor o
Ġconven cionals
Ġcaus ant
Ġcompleix i
Ġint oler
Ġves tÃŃ
ĠOb ser
Ġvalenci anisme
Ġinnov adores
Ġgaud it
m y
Ġcas i
espec ulaciÃ³
ĠAudiovis uals
ĠSosten ible
Ġtranquil s
alf ab
ĠMar y
ĠS OCI
Ġtor tu
icÃ²p ter
ĠC and
Ġ195 8
ENT S
Ġlog otip
Ġva ca
Ġen vas
un di
ĠRe fer
OR S
Ġse diciÃ³
Ġpat ron
Ġdesign aciÃ³
ces siÃ³
ĠNic olau
ĠDef ens
C rec
mun ici
le gues
b cn
Ġr oses
Ġcompeti tiu
s ki
Ġtin guessin
Ġar xiv
Ġnegu en
vergon y
Ġfeli Ã§os
urr Ã¨ncia
Ġpen si
Ġcamp ions
Ġrom Ãłnic
Ġb Ã¨stia
Ġprom et
Ġliter Ãłries
mi raciÃ³
Ġcoincid Ã¨ncia
Ġk il
od er
e tar
Ġgab inet
av alu
Ġpot es
Ġdes prÃ¨n
Ġorigin alment
Ġsur tin
Ġen ver
Ġent r
es por
ĠK ur
m ot
on ets
Ġnou vinguts
Ġintim itat
Ġcom ba
Ġa jun
ĠMala uradament
os tal
Ġestr enat
Ġprogram ades
ĠS aps
ĠmÃł gic
Ġ194 2
Ġgro ga
Ġcap turar
ab as
Ġcre dit
Ġf ara
Ã©n dez
ĠB of
Ġdenunci ant
! ",
Ġro de
Ġsuper ant
ĠApro var
b os
Ġprodu eixi
Ġf ocs
Ġad ult
Ġentren ar
Ġargu mentar
ap ortar
esc al
Ġb uida
vi ew
Ġadre Ã§ades
ĠP OT
and ra
Ã²g n
uf f
ĠCarbon ell
ĠV et
ĠM ans
Ġlle u
Ġemp eny
Ġmodern ista
on do
Ġtari fa
Ġvulnera bilitat
Ãłm ics
Ġplebis ci
Ġperc entatges
Ġmi res
Ġ0 7
Ġdeci dida
Ġobser vacions
al ba
rÃł ries
Ġha ureu
Ġmac o
exig Ã¨ncia
ol anda
ard s
et ra
et y
Ġent errat
Ġ8 9
Ġ tim
Ġvic erec
Ġmot x
Al coi
ĠSob irÃł
par lament
rem enta
Ġcul tius
Ġpion er
Ġsob ir
fici l
Ġdescon eguda
Ġta xi
p ides
Ġprovin ent
Ġtan ques
ra ss
ĠRam os
Ġca ta
ag s
Ġ196 1
Ġfun er
Ġ19 17
ĠM ana
Per quÃ¨
Ġesper ances
Ġs ocia
H ebron
Ġmis sions
Ġexcep cionals
Ï ħ
umen at
Ġvin guin
t x
ĠcruÃ¯ lla
Ġ9 1
Ġdecid irÃł
unda cions
Ġp Ã¨s
ĠSer vi
Ġargu mentat
Ġdemos trant
ĠquÃŃm ic
f urt
Ġver bal
ĠCar ras
ĠVal d
Ġabund ant
ĠG ali
ec ular
Ġfu ga
ĠPen ÃŃnsula
or x
l ics
Ġmul ticul
Ġm ural
ĠF an
ĠD IS
ĠCh rist
Ġpreocup acions
ĠCom enc
titz ada
inf luÃ¨ncia
Ġesti ga
Ġperill osa
ho quei
Ġc odis
ent ra
Ġdi gueu
Ġrequeri ment
M ont
H O
Ġdescar tat
Ġlici taciÃ³
z u
Ġcrid ant
ass embla
end or
ĠLe o
ĠMol ÃŃ
Ġinteg rats
ĠOlÃŃmp ic
Ġcol p
ĠV inc
ĠPerson alment
T e
Ġpoder osos
Ġins er
Ġitiner aris
Ġcop iar
Ġdesallot jament
Ġc rÃł
Ġb ella
Ġsem inaris
E dat
Ġpres cin
ĠCor b
Ġradi of
Ġin Ã¨
ĠMag dalena
fic ants
G R
ĠSer rano
Ġdur an
ĠT MB
Ġna taciÃ³
ĠP op
ĠRetwitte Ã³
ĠE M
ĠTor ellÃ³
Ġter m
Ġ194 3
iscop al
Ġmultina cionals
Ãł via
Ã ı
Ġlli gats
et Ã¨ncia
Ã ´
vi da
Ġdiscapa citats
ĠCon dicions
Ġmodern itzaciÃ³
ab Ãºs
ĠanÃ¨cd otes
ĠMed alla
T ES
exper iÃ¨ncies
Ġgimn Ãłs
Ġcompro vat
Ġbas tir
Ġtir ant
Ġg oma
ĠM Ãłr
Ġins tat
Ãłs siques
Ġc ha
identi ficaciÃ³
Ġval en
Ġconstru eix
ĠEs glÃ©sia
ĠRib as
Ġacum ulat
Op iniÃ³
leg ir
Ġem a
Ġprefer eixo
ĠPuigcer dÃł
tin guda
ĠsimultÃłnia ment
Ġrepor tatges
Ġpre ferÃ¨ncia
Ġmur alles
Ġverita bles
id ades
Ġent ri
Ġan Ã©s
Ġextre ure
Ġemp reny
visi bles
Ġsingular s
Ġex Ã¨rcits
ĠLe Ã³n
Ġprote Ã¯na
per t
Ġcoincid it
Ġpression ar
O l
ĠRi us
Ġes mena
Ġan s
Ġful la
ĠT rem
E Z
ĠInterna cionals
Ġher eu
ĠR ico
edit or
em ociÃ³
Ġjudi cis
Ġdescans ar
Ġatrac tius
Ġla b
ĠH uguet
Ġconfess ar
Ġf Ã©u
Ġflex ible
ĠP ell
li ps
ĠCol lege
Ġdi vis
ĠF oc
Ġestudi antil
Ġconver ti
ĠN eu
ĠLou is
an alitzar
un ion
Ġc inturÃ³
ĠCab rera
TR ES
Ġesta rien
Ġdesp en
Ġdes ac
Ġpoder Ã³s
ĠM asc
Ġpresenta dor
Ġpatri otes
ĠV erm
Ġpriva titzaciÃ³
ĠS Ã¨rbia
Ġpos tal
in alment
Ġservi cis
ĠEs tado
Ġgener alitzada
ĠterratrÃ¨m ol
Ġretu itat
al menys
Ġlla tino
Ġglob als
Ġpromo cions
et te
g els
Ġa eroport
Ġmin es
Ġrob ot
k an
ĠCas anova
ĠAli mentaciÃ³
Ġmultina cional
Ġcre enÃ§a
Ġen la
ĠL or
Ġcalef acciÃ³
Ġgran ja
k ins
At lÃ¨tic
ĠS tu
Ġes brinar
ĠHum anitat
Ġacol li
Ġvol guÃ©s
ĠexplÃŃ citament
re pres
entre teniment
fi es
ĠBÃŃ blia
go za
Ġcons ecuciÃ³
IP C
ĠLec tura
ĠE UR
tic als
Ġja jaja
Ġc is
ĠVis ita
Ġra p
Ġexper iments
Ġposse eix
ĠM embre
Ġconstitu Ã¯da
Ġcop ro
Ġadequ adament
Ġexpl otar
ĠRub io
Ġmun tat
Ġestad ÃŃstica
Ġmus ulmÃł
Ġha ig
Ġenri qu
17 14
audi ta
Ġpresump ta
and bol
Ġex pediciÃ³
est ro
Ġcom a
Ġvac una
Ġsi riana
ĠR onal
americ anes
ĠO rient
Ġpec at
Ġb reus
ĠGÃ¼ ell
Ġm ides
Ġcompos itors
ali p
Ġtron c
Ġco hes
min istre
ĠJa ime
Ġur gents
afeg ir
ĠR EG
Ġincorpor ant
Ġavantpass ats
ke y
ĠPressup ost
Ġsin te
ĠV EG
av e
Ġcans at
Ġhere us
ĠInc lou
Ġperill s
Ġe terna
Ġsepar ades
Ġinteg rant
Ġur gÃ¨ncia
ob ar
el nacional
Ġgesti onat
ĠUnit ed
Ġf alles
ab ra
Ġpar te
ĠES O
ĠGran d
ĠClÃŃn ic
Ġreun eixen
M o
obser va
Ġs era
Ġb eren
Ġ ÏĢ
ĠJoaqu ÃŃn
Ġfot ogrÃłfica
con f
Ġtre mol
Ġca val
ĠM ach
ĠRig au
Ġescul tures
ĠJ udit
Ġrep utaciÃ³
Ġedit ors
ĠmÃŃ tic
Ġcorrespon gui
Ġpren gui
Ġinici ada
ici di
inc endis
Ġpar cials
Em ergÃ¨ncies
Ġexpos ats
ĠQu eb
Ġsec essiÃ³
tÃŃ tol
ol t
Ġro ja
Ġque dem
Ġterc eres
S oci
ĠÃ¨ tic
ĠHer eu
Ġj er
ĠRa hola
Ġconsidera cions
ĠCh Ã¡
L i
ĠH erm
rob i
Ã² tiques
Ġtrob in
Ġd ors
Ġincom pren
ĠS EPC
ĠPrem iÃł
ĠencapÃ§al at
Ġpr osa
Ġnecessi tar
Ġcontamin ants
ali anÃ§a
Ġaccep taciÃ³
a campada
ĠTe am
Ġ194 6
h l
ac tius
Ġor elles
Ġven janÃ§a
Ġman uals
Ġinven tat
lap se
Ġdic tar
ĠB ob
ter ror
Ġv elles
Ġinfant esa
Ġres tant
Ġdisc ussions
ĠN or
Ġtranscend Ã¨ncia
Ġads crit
Ġamb ici
Ġti ro
na ment
ĠSantamar ÃŃa
Ġm ites
Ġauton Ã²mics
estr any
ĠQuir ze
ĠLÃŃ bia
eu ters
let xa
Ġalluny at
Ġembl emÃłtics
ig ra
Es cala
Ġes gar
Ġbla ver
ĠV A
ĠGib raltar
Ġenf ocament
ĠActu alitzada
Ã§ ois
ĠEusk al
Ġlla mp
Ġdes nivell
Ãº ni
Ġsubrat llar
\ '
Ġsugger eix
Ġesc ar
labor en
Ġmul tip
ĠLla gostera
Ġret roc
Ġunivers itÃłries
Ġcre ient
ĠNacional ista
Ġaband ona
Ġim minent
ĠMa h
Ġprefer Ã¨ncies
ĠZel anda
Ġproc lam
u er
ĠSER V
en via
Ġresca tar
Ġcab dal
Ġmar ges
ĠCom enÃ§
ĠK ong
ÃŃ an
Ġdesper ta
Ġverita blement
Ġenvi ats
S Ã³n
Ġf Ã³s
Ġdescon eguts
ĠTen ir
Ġcer tesa
Ġconsol ida
Ġex istit
Ġcere als
av anÃ§ar
Ġbarre jar
Ġdecid eixi
Ġz o
Ġpre dis
Ã¨ iem
ĠV ÃįDEO
Ġllin dar
Ġdid Ãłctica
Ġcri atura
ĠCla us
m ers
Ġescrip tora
Ġb ess
==== ====
Ġdra m
ĠH OM
Â« Â«
Ġmulti discipl
em s
Ã² d
Ġsalari als
AR D
Ġveg in
ĠmÃ¨ diques
ĠCat Ã²lica
Ġsos tingut
is quen
Ġaf us
Ġcust Ã²dia
Ãº b
gent ona
ĠV o
us h
Ġdeclar ada
Ġconsci enciar
Ġn adi
Ġac tives
Ġv era
Ġmortal itat
ĠM obile
op eracions
ĠBe at
Ġque do
Ġfederal isme
Ġexpor tacions
ĠBor bÃ³
ĠJun y
Ġmallor quins
Ġprogress istes
Ġtan quen
ĠcÃŃ vica
ĠsuÃ¯ cidi
ĠSand ra
Ġxi quetes
Ġrec er
ĠM ia
Sal ut
Ġmo gut
ĠVil assar
Ġser Ã©
esdeven iments
Ġconsecu tives
epis odi
ĠDeix a
Ġpresen tin
Ġregis trats
ĠMoll erussa
F P
Ġpet ons
Ġfutbol istes
ĠVal le
Ġincid ent
Ġb atre
ocrÃł cia
P ol
ĠV eure
Ġapor tant
Ġcoordin at
ob erta
t ran
Ġpresid encial
ĠPu blica
Ġteat res
Ġv Ãłries
Ġcu es
Ġnaveg ar
Ġlluit en
ĠprÃ²pia ment
Ġresta ura
E TS
Ġgo ig
Ã¨n yer
Ġselec cion
Ġfl ora
Ġexecu tat
ĠC RE
Ġfu e
Ġtradu eix
Ġsot mesa
Ġap legar
TA MENT
h Ãłb
ĠCATAL ÃĢ
H C
Ġv aris
u ga
ĠEcon Ã²mic
entis tes
ĠMi reu
F ran
rom pre
Ġconte x
Ġ19 19
Ġparlar em
ĠCon vocat
Ġar re
z ano
c r
Ġaf iliats
Ġprud Ã¨ncia
ĠL ar
Ġconsidera blement
enc Ãłrrec
U craÃ¯na
Ġreser vat
ĠO B
ĠCal drÃł
Ġallot jament
ĠC OS
Ġdisc oteca
) "
orden ades
Ġca f
Ġsetman ari
oc ra
Ġx ut
tan os
ĠM ilitar
Ġbene ficia
ĠAn Ãłlisi
ĠPas cal
E quip
Ġ0 3
IS ME
Ġrefer ia
Ġap ariciÃ³
Ġconsig nes
Ġdibuix ant
ĠLa ie
Ten im
Ġgaud eixen
Ġpoli tica
ĠM UN
Ġassocia tiu
Ġli b
Ġanti gament
Ġsub missiÃ³
landes os
Ġinde pes
ĠJard ÃŃ
Ġc rac
Ġdeg Ãł
Ġresul ten
ĠPa eria
Ġcontempor anis
ĠMes tres
Ġpros titu
ĠruÃ¯ nes
ur bis
Ġdespr s
Ġf rat
titz acions
ĠT ai
Ġag rÃłria
g ols
Ġexpl os
Ġ195 5
tu alment
U U
ĠRes um
Ġsofer t
ĠM Ã¡r
Ġprincip at
Ġlla vis
ĠLen in
Ġret Ã²rica
Ġprior itari
Ġdist or
Ġma ma
Ġdi la
Ġdesn onaments
Ġmantin gui
Ã¡ Ã±ez
Ġperdu ts
P re
Ġinscri t
ĠBr uc
ĠPorta bella
Ġab oc
Ġorgull osos
ĠRufi Ã¡n
ĠplÃłn ols
z ona
id ora
ĠvoluntÃłria ment
ĠPl anta
ĠP Ãł
ĠP era
inter Ã©s
Î ·
Ġta pa
Ġacompany ant
ĠD ansa
Ġassegu t
Ġinc o
Ġconform ar
Ã ¬
Ġmit ges
Ġboti fl
esc alada
ĠLli bres
es tany
ĠC he
Ġre bl
Ġg re
ĠF ores
Ġcomplement Ãłria
Ãłu tic
ĠM ec
Ġori entada
amp lada
ĠSegu eix
et ta
Ġsoci ol
Ġir ra
Ġdefin ida
Ġrob at
ĠAnt on
and ell
ÃĢ ustria
Ġdisseny ada
ĠV erg
ĠH il
ac ar
c oll
Ġta u
Ì ģ
si vitat
impuls ar
Ġrecor rer
Ġan alÃŃ
ĠY a
Ġs ana
Ġllei altat
tu es
imp orta
ĠCamp ions
r ud
v ana
inter essos
Ġb Ã¨l
Ġfed eracions
f ox
ĠH ans
Ġlla tina
Ġpre inscripciÃ³
Ġprepar en
ĠBi ologia
ud ia
un ic
Ġdespro por
au dio
Ã¨n ior
Ġtros sos
al titud
Es ta
in ars
Ġde terior
ĠC oc
Ġde tri
Ġcas ol
ĠPort o
ĠS el
Ġidenti ficats
in ess
ĠN ascut
Ġferrovi ari
Ġdesitj ar
ĠÃł via
Ġev itat
Ġte Ã²rics
ĠR ita
Ġelec tro
te ta
ex cep
Ġelev ats
ĠGir onÃ¨s
in k
Ġtas tar
ÃŃc ola
Ġhab ili
Ġpr el
Ġunion ista
tada ment
? ...
Ġconvoc ats
ĠSad urn
Ġc ual
Ġpassa ven
Ġ10 7
ĠsuÃ¯ cid
Ġdem Ã²crata
Ġparad ÃŃs
ĠRom an
tu alitat
Ġrend ir
Ġpl om
ess en
Ġpot Ã¨ncies
ĠIni esta
ĠTol osa
ĠLoren zo
en ri
Ġsus ten
Ġmor en
Aut onomia
Ġv ici
Ġmig rants
es quadra
Ġtan cs
Ġreper cu
Ġse quera
Ġnorma tiu
op in
jo an
I lla
Ġprol on
imm oble
Ġmediamb ientals
rec es
ĠS inc
ĠRa imon
Ġlleg endes
suna mi
Ġun itari
Ġpis cines
v ics
ass oli
Ġ ....
Ġp uto
Ġ194 9
ĠJun tament
per iod
ĠcÃł mp
atur ar
ĠdÃ¨ bil
Ġdesitj at
ĠOrg Ãłnica
er res
ĠN Ãºm
Ġimmig rant
Ġpas tor
ĠCh icago
Ġpar tint
Ġsup rema
Ġpoli tics
ĠSob iran
Ġsatisf ets
ĠdomÃ¨s tic
ĠTer min
Ġps ÃŃ
Ġbibliot ec
Ã¨ t
S ense
Ġelabor ada
ĠP lus
Ġtur cs
Ġsensi bles
Ġoc e
. âĢĻ
ĠU b
Ġar ru
ĠCar naval
it Ã¨s
Ġsaluda bles
Ġprocess ament
Ġlluny Ãł
Ġvi b
Ab ril
or ella
ĠInici alment
ag res
m unt
Ġjuga va
hu ana
Ġjap onesos
egu ir
ĠÃ²p era
ĠCons tant
Ġanar quista
er ols
Ġfa Ã§a
Ġfos cor
ĠMarc os
Ġimb Ã¨
entis me
Ġpion era
Ġren uncia
ru guai
Ġes tesa
Ġregu len
â Ķ
Ġun ida
Ġceleb raran
Ġvor eres
Ġrendi bilitat
ĠPeriod istes
Ġafir mant
t oca
Ġretre t
Ġtanc arÃł
Ġpin tat
ĠMon toro
Ġlabor atoris
Ġcol lita
Independ Ã¨ncia
Ġtele visi
as p
ĠO bli
ĠS ans
Ġprobl emÃłtiques
agrup aciÃ³
rim eix
ca tala
heim er
ĠVic tor
end ar
Ġimpar tir
Ġvirtu als
Ġderro tes
Ġpremi at
En giny
Ġpil es
ĠMerc edes
equ ilib
ĠIsl Ãłmic
S anta
k al
ĠChÃ¡ vez
et h
Ġti a
A da
Ġad mir
ĠpedagÃ²g ica
l ela
uÃ¯ ts
Ġcl ari
Ġmun do
Ġsac se
Ġ195 4
En ergia
Ġandal usos
Ġcar rils
ĠMor ales
Ġesp erat
ĠS os
Ġres pira
En tesa
Ġp ala
ÃŃs s
Ġde pre
Ġreflec tir
fer ents
Ġas tr
ĠCom te
ata suna
ĠW ood
Ġpr orro
Ġde is
Ġtra mpa
Ġre estructuraciÃ³
ĠCat eg
Ġex acte
U ni
CI ES
Ġcan alla
Ġcre ats
Ġsignifica tives
Ġamb ients
ĠSadurn ÃŃ
expl osiÃ³
fic ciÃ³
Ġmes quita
Ġali ena
especi alment
Ġterra sses
Ġdesa per
Ġgui ades
Ġla ment
Ġs r
itz adors
p unt
A j
Ġaut obÃºs
Ġata ca
Ġcreix en
ĠAnt Ã²nia
ĠAb u
ĠS pain
J unts
ĠQU AL
Es tic
Ġvall s
Ġtorn aria
min o
ĠIn Ã©s
Ġan alitzat
Ġpar en
Ġpon Ã¨ncies
Ġhon gar
Ass ociacions
Ġdifer encial
dar ulls
Ġteat rals
Ġdes quali
O pen
Ġencap Ã§ala
hist Ã²ric
ĠF idel
ĠCat erina
Ġmodi ficada
ĠR EP
Ġll its
Ġas tu
Ġsard anes
ĠB uch
Ġanar quistes
Ġpertany ents
ĠestratÃ¨ giques
Ġpol it
ĠN A
ĠAr mengol
Ġlegisla tives
Ãłs tro
ĠEmpresari al
tit za
c entes
Ġ195 3
Ġpist ola
Ġven uts
Ġcob rament
Ġpe atges
v ari
Ġnoti cies
P G
Ġcam isa
Ġpens e
Ġne er
Ġapar cament
fe Ã³
Ġrec lu
ĠreferÃ¨ndum s
Ġor ques
Ġbas ar
oc ci
Ġencer tat
Ġreta ule
Inicia tiva
Ġ11 5
Ġafirma va
ĠEspa Ã±ol
ord s
Ġtem or
orta ble
ĠÃĢ rea
Ġic ona
Es pa
hab ita
ĠCul turals
r ing
tras burg
Ġrepar tit
ĠMun ic
Ġp oma
Ġfla mes
B o
Ġpod riem
ĠApro fi
ĠcÃ¨n tims
Ġdes pren
ĠVi quipÃ¨dia
ĠVic epres
ĠG olf
ĠveÃ¯ nal
Ġentusias me
Ġfurgon eta
ĠImp eri
Ġad quisi
M us
Ġactiv at
b la
ĠGin ebra
om o
Ġvotar an
expos icions
ES A
Ġmantin dre
IR PF
en reg
g Ã¼
co h
acab i
ĠAugu st
Ġdesenvolup ats
Ġaustr ali
Ġexpl otacions
Ġdes agrada
ĠFe ia
! ).
Ġapos ten
Ġa fers
ĠvestÃŃ bul
uc ar
Ġaconsegu im
ĠNorm alitzaciÃ³
organ ismes
Ġcon vin
Ġsupos ats
go ixa
ĠQuin tana
ĠCer tament
Ġopos at
Ġmitjan it
anc en
Ġra ona
Ġsuposa va
Ġrefor Ã§a
Ġdiscrep Ãłncies
acab en
Ġacla par
Ġfot en
ĠMIT J
d eix
ĠCa mar
Ġsoci ates
ĠAlem any
Ġvin yes
tric k
Ġac onsella
em ergÃ¨ncies
ĠAr que
ta ta
er ades
ĠBus h
IRE C
Ġramad eria
he z
Ġrom and
ĠCÃł ritas
Ġmanifes ten
Emp Ãºries
ĠAqu ella
ĠportÃł til
Ġoc t
z isme
emb arÃłs
Ġperson alitzada
iv et
Ġmeridi onal
Ġrepres a
Ġarren ca
Ġ17 0
ĠPu erto
Ġconci liaciÃ³
ĠK im
Ġrefer endum
ur recciÃ³
ad oc
E v
ĠplÃłn ol
ob les
Ġvin ga
Ġx an
interpre taciÃ³
ĠCap devila
ĠCab all
ĠescÃ¨n iques
hero i
y r
Ġ ones
ĠJord Ãłnia
Ġva gues
ga z
Ġparl in
Ġ193 5
Ġmasc le
ĠIgual tat
Ġdra mÃłtica
Ġalim entaris
tr Ã²
ĠLleg ir
' @
Ġemp enta
ĠAn dal
Ġal Ã§ar
Ġun Ãłnim
Ġexpl o
Ġsuperm ercat
d rien
ĠqÃ¼esti ona
Ġdefens ava
em en
ĠSi erra
g ro
Ġinter es
Ġgaud int
Ġcaracter itzat
ĠPS UC
Ãºr gia
Ġge omÃ¨
Ġvor era
Ġdeix aran
Ġhum itat
un tu
Ġvis ca
ICI P
Ġdocumen tat
Ġcompar at
apro pa
B O
Ġreconegu des
Ġdial ogar
ĠMir alles
Ġs ir
Ġimpl ÃŃ
Empres es
ĠResta urant
ĠSe at
esca cs
ĠV OL
Ġcorpora tiva
Ġmi ro
ã Ĥ
Ġinfec ciÃ³
Ġcoordin ada
ĠSal es
n otÃŃcies
Ġdesg ast
A vinguda
Ġmor ÃŃ
TA CIÃĵ
ĠLeg is
Ġadjud icat
Ġins osten
lici tants
esc ul
qui o
Ġla mentar
Ġpsic olÃ²gica
Ġsorti ran
lar Ãł
Ġd rÃłs
ici cle
Ġvil es
Ġat ribuir
Ġs ents
ĠTorn eig
Ġhom olog
Ġre posiciÃ³
Ġgarant eixi
os ar
Ġinterven en
ĠBÃłs quet
ĠModi ficaciÃ³
ol ins
Ġesdevin guÃ©
Ġautor itzar
ĠclÃłus ules
imp lan
n u
D a
en vi
ĠCar olina
Ġde bilitat
Ġta c
car is
Ġm osa
Ġnobles a
Ġvis iten
Ġrem unta
Ġvuln eraciÃ³
estr Ã¨s
Ġintercan viar
lec tives
esc ollir
Ġaccep tada
Ġafric ans
ĠD IA
Ġest o
Ġfesti vitat
t omÃł
ĠV ers
Ġactu arÃł
ĠBibliot eques
ĠBl asco
Ġmor als
Ġconv ic
ĠCerd Ãł
ĠCa mer
Ġdispos ava
Ġvi al
est el
Ġri dic
Ġcorrec tes
Ġadap tada
Ġpass Ã©s
ĠO ficina
s u
Ġtrob alla
Vall Ã¨s
ĠPRES S
Ġ0 4
on em
ĠGarri gues
Ġb ag
ĠRa y
Ġtranscor re
Ġan o
ad ir
ĠTre mp
T RE
ĠG im
Ġevent ual
ĠI U
ĠNeg oci
ĠEs cal
ĠBo ix
Ġindign ats
ĠC AN
Ġal ar
ĠSim on
end Ã¨ncia
ex cÃ©s
Ġintu Ã¯
Ġcons ti
Ġenvol ten
ĠUE FA
ad met
Ġjut gessa
Ġconeix es
Ġignor ant
ĠS S
ĠPublic at
Ġpreve ia
Ġret ribuciÃ³
ĠG usta
especi alitat
ĠV era
Ġval er
Ġamp olles
Ġsal udar
Ġsospit Ã³s
ĠK ir
Ġlin k
ĠSard enya
ĠNi k
Ġpa guem
Ġexp and
ĠC OV
r ela
el Ã¨c
ĠLabor al
Ġpres tat
Ġdram atur
ĠGu inea
Ġcanvi arÃł
ĠMont b
ĠPer manent
UR S
Ġindiscu tible
ÑīÐħÑīÐħ ÑīÐħÑīÐħ
Antoni o
OB RE
Ġre trats
ĠR on
can ar
Ġtristes a
Ġb anys
Ġacredi tar
Ġedi ficacions
ĠRod rigo
Ġman res
Ġtin guen
ĠsÃ² ls
ĠPrim avera
Ġconserv adora
Ġvari ada
ĠBarcelon eta
Ġcap taciÃ³
Ġdesa fi
V i
ĠA us
c opa
Ġexpl osiÃ³
pu blic
Ġmari huana
Ġf Ã¨r
Ġon cle
D em
E qu
à ¹
ĠCon cepte
Ġculmin ar
int o
ĠMan acor
Ġcarre ga
Ġsal vat
Ġ19 14
ĠRes erva
ĠllÃłg rimes
Ġhas ta
Ġdes vinc
cessi bles
ĠFire fox
ol iciÃ³
ĠEs pec
Ġperp et
Ġal tura
ricul tors
Ġexac ta
per aciÃ³
as ter
Ġra onament
Ġmostra va
ĠOp era
Ġcri tiquen
ĠLin ux
Ġexig eixen
Ġcamb res
Ġconc edeix
On ze
Ġaf ins
Ġb arata
Ġb rossa
R i
ĠCort Ã©s
SI Ãĵ
ord ina
ad ella
Ġbomb olla
Ġselec tiva
Ġconver tirÃł
ĠEs truc
ĠpÃłr quing
ener ife
Ġne ona
Ġdes ocup
tan d
Ġhau riem
ĠclÃłus ula
eg ats
Ġbas en
Ġra mb
Ġenques tats
ĠS tra
Ġf omen
ĠBri tÃł
Ġanterior itat
ci tar
ĠCastell Ãł
ord es
ĠCamp os
Ad ministra
ĠAlg una
Ġvin dran
ĠÃĴ scar
estre ta
ĠR eix
Ġord ena
acc edir
ĠPac ÃŃfic
Ġver ge
Ġpatri ota
Ġl entament
ĠR in
Ġenginy ers
Ġacab aria
Ġsign ants
acredi tar
si bles
Ġ0 5
Ġori entar
Ġadqui rits
integ rar
- :
Ġcons egÃ¼
ol ig
Ġpres tig
till eria
ĠAd olf
Univers itats
all en
Ġprefer ent
Ġdespatx os
Ġp ors
Ġ[ (
Ġhos til
Ġfona menta
E gipte
ival ent
ĠV ostÃ¨
int on
ĠJ ack
cul tural
Ġinterp el
Ġestat us
Ġuni form
Ġhid rÃł
Ġdel ta
ĠC I
Ġha guera
os fera
da vall
Ġeleg its
Ġinter Ã©s
ĠavanÃ§ ats
gi ble
ĠGe ografia
Ġrepresenta va
f eta
Ġf ec
Ġfom enta
Ġagrup a
Ġap u
ic os
Ġpublic Ãł
ĠAl lÃŃ
Ġsuperm ercats
Ġse di
ĠMet ges
Ġcircums cripciÃ³
ĠFo ix
Ġpic t
Ġgal Ãłx
ci ments
Ġsavi esa
Ġexcur sions
Ġves tuari
Ö¸ Ö
Ġesta bles
encar reg
ca cions
all unya
Ġredu int
indi gn
exerci r
ĠB ec
ĠGir on
acos tu
abil itats
ĠPro ven
Ġinvestig ats
Ġconvoc ades
imp osa
ĠZara goza
og Ã¨n
Ġciv isme
, [
Ġcerca vila
Ġesc ull
Ġprior itzar
ĠSanc his
Ġescoc Ã¨s
Ġimmobili ari
I d
ĠP ia
Ġpersegu eix
ul tes
Ġfit xes
ra k
Ġprofun des
es g
am os
ĠMem orial
Ġconsta tat
ham mad
Ġaplica bles
ĠD I
Ġconv oquen
ĠRec up
ĠJ Ãºlia
ĠTO TA
Ġdiver siÃ³
Ġinver tit
Ġconven iÃ¨ncia
Ġmaltrac tament
Ġrepeti ciÃ³
Ġdes vet
ĠPro u
Ġpod ries
Ġperjudi cis
Ġdesfil ada
ĠIn ten
Ġpod ÃŃem
ex uals
Ġompl ert
aqu el
Ġcompeti tiva
ĠautomÃł tic
ĠLL EG
ĠDis ney
Ġgu arn
ĠIND EPEND
en gan
ĠRepublic Ãł
Ġvol ÃŃem
b oni
Ġemp ren
ĠMas ia
Al f
si blement
al caba
ĠA dre
Ġvideoj oc
ĠI lla
ĠMunicip als
Ġp esa
Ġa ula
Ġdes lli
ĠPro ducciÃ³
d era
Ġpropos ada
Ġfantas ma
or ks
rib as
ĠE FE
Ġperson alitzat
ov asc
ĠL ac
a ti
Ġel its
ĠA qui
an ni
Ġe j
. âĢĿ
ĠGu ti
Ġprodu Ã¯ts
Ġproced eix
Ġrever tir
Ġdenom inat
Ġcor b
op osa
b ums
Ġar ras
Ġrob ots
Ġsegueix o
Ġmanten ia
ur ÃŃem
ess es
Ġreal isme
Ġset Ã¨
an as
Ġb adia
Ġdeteri orament
sen al
Ġtranspor tar
Ġdestin acions
ĠtraÃ¯ ciÃ³
Ġmotoci cle
ĠSu eca
Ġdetri ment
pa m
Ġ195 2
ĠF ent
Ġcons ag
Al m
ob lament
Ġinforma tives
Ġportar an
Ġx iu
Ġmetal ls
ass ament
ĠfinanÃ§ at
independ encia
Ġinf racciÃ³
enti t
fre do
Ġ0 6
ĠBre xit
cipi ent
ĠÃģlvar o
ĠQueb ec
Ġn oru
ob ren
Ġeti quetes
Ġsal ud
Ġbo ira
ap el
ĠHong ria
D ia
~~ ~
era bles
EN Y
Ġregul adores
Ġadqui reix
Ġespon tÃłnia
ĠSegu idament
inf lu
ĠavanÃ§ ades
Ġex it
Ġent renament
Ġcre acions
Ġobser va
ĠC esc
aj udes
ĠS elec
Ġaglu tin
Ġcamp ionats
Ġpod rÃ©
D I
Ġagrup acions
ĠCan als
Ġs ing
eb es
ici tat
oc l
ĠVi etnam
Ġprom Ã¨s
itud s
Ġafeg im
ĠDar rera
A ll
Ġ19 23
Ġper tor
Ġdesp leg
Ġtend eix
Ġcl Ãłssiques
Ġrecla m
Ġinc ur
Ġcompl int
ĠAl ternativa
ĠGo ya
Ġlider ada
te gi
xim a
199 7
Ġestre t
Ġesbor rar
th ur
Ġboni ques
Ġdispu tarÃł
Ġamena Ã§at
Ġaugment en
Af ganistan
emmagatzem atge
Ġjo ven
ta blement
Ġdeman i
ĠD rac
ĠP EL
aut omÃ²bil
Ġesdevin gui
Ġimp rimir
Ġsenzill es
Ġmin eral
OM S
se ts
Ġprop ia
ĠN Ãłstic
Ġrecep tor
Ġet n
Ġbor rat
Ġmasc les
Ġex ting
Ġexc uses
Ġmass ÃŃs
ĠMill o
Ã¨ lic
Ġapar tar
ES P
tad ores
ĠAle ix
i tius
ĠJudi cial
anes os
Ġinf il
ama ga
Ġb acteris
ĠMÃ¡r quez
Ġbenefici ari
Ġcomp ag
Ġingress at
Ġ3 60
x x
Ġad orm
ĠPla ta
C re
Ġp ul
Ġelev ades
Ġob ren
duc tor
Ã± oles
ĠcÃ²n sol
Ġsi riÃł
". "
ĠP ur
Ġin gen
euro pe
Ġconf lu
ĠCandidat ura
Ġpe atge
id ents
ĠLoc als
evid Ã¨ncia
am ora
at racciÃ³
Ġha cer
Ġpre ciÃ³s
ĠVal verde
Ġfri k
Ġm n
Ġaux iliars
k ari
M e
Ġdi guis
od y
Ġprestig iÃ³s
ĠP Ãłgina
ĠAl z
Ġdes viar
ĠOr tiz
orn o
esc riu
Ġf rÃł
e ves
F ranÃ§a
Ġdi ficil
Ġindefin ida
Ġorganitz ant
Ġdisseny ador
pr in
Ġferrovi Ãłria
ĠGod Ã³
ren as
Ġcomple tat
ĠOb jecte
un e
Ġe uf
IN E
Ġr ond
ĠInstitu ciÃ³
Ġmani obres
Ġhom Ã²nim
Ġdom inaciÃ³
G ener
Ġamb iciÃ³s
Ġpre var
Ex posiciÃ³
ĠcÃ¨le bre
ĠMar ca
Ġfar mÃłcia
ĠV Ã¡zquez
Ġ {
met lla
ĠS C
gi en
Or de
Ġsof Ãł
Ġo u
s at
Ġ ~~~
gu eres
do va
ĠEsc oles
Ġob e
Ġsin istre
Ġrecoll its
Ġcereb ral
Ġregular ment
Ġhipot eca
er te
ĠY outube
Ġmin is
Ġfal si
ĠNo ti
Ġrepl ant
Ġimp actes
ĠBot Ãłnic
Ġveter ans
IST ES
ĠHist Ã²rica
Ġa tesa
ĠDal mau
Ġcat Ãłstro
ra m
Ġnomb rosa
Ġpressupos tari
ĠSeg riÃł
On tinyent
ut ur
Ġsup lement
Ġcavall ers
ĠSab em
r t
eric o
ins pec
Ġrefer int
ĠF res
S obre
sindic al
Ã² drom
d ellas
ĠFot ografia
ĠT Ã²
Ġco ordenades
ĠVol ta
) ?
U V
Ġdepend re
Ġemo ciÃ³
ĠAl tra
fac ebook
Ġplan etes
Ġmotiv ar
ĠCas tillo
M en
Ġfac to
Ġrevolucion Ãłria
Ġt ÃŃm
Ġon ades
Ġv ela
Ġl ic
L li
Ġenc om
Ġdes menti
ĠDe fin
olog ÃŃa
ĠFrances a
ĠExtre madura
Ġsec ession
Ġconc eb
ar bit
ĠP it
ĠEfec tivament
Ġha gis
ric e
Ġcont rover
ĠMoz art
Ġmar atÃ³
Ġlleg eixo
En cara
acum ulaciÃ³
Ġpint ors
Ġp ut
Ġass isteix
ĠAqu ells
ĠMat emÃłtiques
E t
enti r
itz arÃł
h ard
Ġx at
Ġbog eria
en al
Ġma tins
Ġcri des
Ġtec lat
ĠCar dedeu
AAAAAAAA AAAAAAAA
Ġaccep ten
end ent
Ġpre pot
Ġpel i
A eroport
ĠJohns on
an ual
ĠtindrÃł s
B ank
ot era
ĠT E
Ġampli ant
ĠAl ÃŃcia
D S
Ġcar peta
Ġbri ll
ĠanÃ¨cd ota
Cam acho
Ġpan or
vi vÃ¨ncia
ingÃ¼ e
Ġbar ret
Ġprecipi tacions
Ġcautel ar
ĠTra pero
id en
ora cions
Ġdissol dre
ĠLl uÃ¯
emp o
ĠVI H
ĠÃ ĵ
Ġmirac le
m ell
Ġ19 22
l libertat
ox igen
ĠAr xiu
Ġ4 50
Ġdistin tiu
Ġar te
Ġperjud icar
Ġp tes
T or
avant guarda
Ġinc Ã²gn
ĠRa Ãºl
f Ã¨rica
Ġtransform at
Ġcap davall
Ġcontes ta
ĠZ o
ĠSo und
Ġelabor aciÃ³
on ges
fici entment
Ã¨ dies
Ġcreu er
ĠCel oni
Ġvi tals
Am ics
aud itori
Ġg ota
Ġpl Ãł
ĠJ en
ĠC H
Ġ19 00
ĠB rigada
ĠVolun tariat
Ġdilig Ã¨ncies
ĠOr gan
qu ot
ecu tiva
ĠmÃºltip le
Ġcons istia
Ġadi ents
vell es
Ġoc Ã³rrer
Ġgu ap
Ġlog o
Ġin des
oss ar
ĠAn ys
Ġtram via
Ã© e
c ultura
ĠComp te
fici s
ĠCons ells
Ġc iment
Ð³ Ð³
indi quen
ĠN apole
eu tament
Ġd anses
Ġrevel aciÃ³
Ġs avis
Ġcorrup tes
Ġaccep table
Ġren om
si Ã³n
m Ã³
1 01
ur na
tic es
Ġw as
AD E
Ġcompon en
Ġtra ure
Ġr ols
avor its
Ġprec ÃŃs
Ġurban itz
ĠmÃłr tir
Ġval ents
y ons
ĠexplÃŃ cit
Ġposar em
ĠCh ris
Ġenc ert
Inter Ã¨s
Ġnota blement
Ġnad ons
ĠB ac
ÃĢ ngel
Ġarque olÃ²giques
L C
ĠJ oc
Ġcontin ental
Ġtrans m
Ġv ar
Ãł rem
Ġfas tig
ĠL una
Ġbar Ã§a
Ġfor ti
O ri
Ġnega tivament
ĠEnten c
ĠB urgos
ĠdelinqÃ¼ ents
ĠprÃ² leg
Ġju guem
Ġafec tarÃł
Ġpod ent
ĠBat et
AR S
Ġ( )
Ġcas als
ia ciÃ³
ĠPa kistan
in isme
ĠF landes
Ġneu ro
Â º
ĠES C
Ġsos tenir
Ġmes cla
Ġper ru
z as
Ġcin emes
ĠO h
P l
a pren
Ġvis ions
ĠProfes sionals
Ġenseny at
oce Ãł
Ġestr anys
IU S
ĠApro f
ocup a
Ġhau ries
Ġdespres tigi
af ric
Ġab at
Ġmon jos
Ġmat riu
Ġconfec ciÃ³
ĠA ux
Ġparticip in
Ġpes at
Ġunilat er
Ġsosten ibles
Ġ19 28
Ġen Ã§Ãł
ĠAss ump
Ġsenzill s
ex cepte
ĠautÃ¨n tics
rec ord
ĠResid us
Ġco okies
Ġdon Ã©s
ĠSub venciÃ³
Ã ¸
per es
ĠTor ro
ĠGrup s
ĠLabor atori
c ast
Ġactu alitzat
Ġ !!!
democrÃł cia
Ġequi vocar
Ġas si
Ġr ates
ep id
Ġobten int
u ir
Ġconeix eu
ĠLaie tana
vi di
Ġtrin x
Ġdesit gen
in ic
Ġfor Ã§at
Ġ195 1
est ona
Ġreci tal
Ġhomosex ual
Ġpor tin
expres sar
Ġcomanda ments
ab at
Ġgovern at
Ġfor Ã§
ĠS tr
aband onament
ac ol
Ġelo gi
Ġconnec tat
Ġvo tin
ĠPe ters
amb dÃ³s
× ¨
in Ãłries
ĠNe y
ĠD ir
ĠTrem osa
ll oc
pre taciÃ³
Ġpue de
Ġdoctor al
ĠXi quets
aÃ¯ llament
w ar
Ġestre tament
Ġne vera
ĠAjuntament s
Ġvig ilar
ĠCro Ãłcia
Ãł cies
ĠM ort
Ġin grÃ©s
end ra
ot os
ĠAl l
Ġpublici tari
ĠQu ants
ien cia
ca m
Ġn ada
Ġsubstan cial
Ġceleb rant
ad y
Ġp alla
ĠB ab
olog y
wee tet
all at
Ġh ÃŃb
Ġalterna tius
ĠmolÃ¨c ules
Ġtur ista
pec tiva
Ġbloque jar
t ons
ĠS ofia
Ġpartid ista
Ġespl Ã¨n
ci par
Ġinnoc ent
ĠCal der
ĠsÃłpi guen
all y
nes tol
ĠColls erola
Ġnom ena
Ġfron ts
Ġesc ultura
Ġha gen
Ġrecord eu
ĠVill ar
atg eria
r ub
da y
Ġautop istes
ĠS un
9 00
espe are
V aig
Ġson or
Ãłb ria
mac ho
Ġcontribu cions
Ġapar t
Ġ19 24
ri eu
na ugu
? âĢĶ
ĠLl ob
IA CIÃĵ
Ġassab entar
ĠCer tificat
ol et
Ġar ticular
Ġcrom os
Ġalliber at
Ġindic aciÃ³
iss eny
Ġins piraciÃ³
ĠJo vent
Ġcine asta
Ġinvesti gat
enci ada
tre t
ĠNeg ra
er ant
od or
ul ants
Ġfalta va
on istes
ĠB lo
ĠCon Ã¨ixer
Ġsor tim
Ġve z
Ġcat Ã²lic
Ġrati ficar
Ġesc ut
an at
ĠA viat
Ġcompta bilitat
cul o
Ġmedi oc
ĠJ ones
ks on
IM A
ĠDesta ca
ĠRes ultats
Ġlliga ms
Ġform als
Ġobtin guda
Ġseg ones
Ġhaur Ãłs
ĠC ADA
ĠC Ã©s
la ma
assegu ranÃ§a
expres sa
ĠSim fÃ²nica
Ġisraeli ans
Ġeduc ar
ÃŃs ia
dic te
Ġress altat
Ġportugues os
ĠAra g
nestol tes
Ġma tan
ator gament
Ġdescon nec
Ġenf oc
Ġmal bara
tu Ã³s
Ġpregun ten
Ġimpos ant
Ġsubs titut
Ġpota ble
c op
ĠM ON
is m
Ġal tern
Ġtes tament
f oc
Ġr ar
ĠB alta
Ġri tual
Ġpremi ats
ĠB O
os e
ĠA SS
ĠcÃ²m oda
ĠfÃłrmac s
ass ot
ĠV igo
ĠGre uges
Ġecolog istes
ob tÃ©
Ar c
ĠFrank furt
Ġtransform acions
Ġobs tacle
Ġinvestig ant
encar regada
Ġneb ot
Ġeleg ir
Ġnacion alitats
xa mp
ĠRub alcaba
ĠsÃ² lids
Ġtit elles
Ġh igiene
re guen
ĠAl m
Ġal darulls
interess at
ĠEs ter
Ġcarre us
gen cat
ĠU A
Ġcer cant
G r
.... ...
Ġartes ans
Ġtrob eu
aug mentar
Ġconten ta
aut obusos
Ġfacil itats
Ġc uny
Ġtall ada
ĠIn vestigaciÃ³
ĠFÃł bre
ĠÃł gil
IR AT
ĠRec orda
ĠM eridi
ven ient
ĠDem Ã²crata
ĠAl gun
D OGC
Ġine quÃŃ
Ġna zisme
Ġex quis
? !
Ġnaveg ant
Ġess Ã¨ncia
Ġm ont
Ġfrac assat
Ġcan c
tan te
ras mus
Ġpos tures
Ġsubs crit
ĠI t
Ġge ogrÃłfic
ĠOb ro
ĠLlic enciat
Ġarrib aran
norm al
ic als
Ġroton da
ĠN ig
Ġline al
c ola
oc alip
Ġacompany ades
Ġde us
Ġesc lar
Ġmos seg
Ġhero is
ĠsistemÃłtica ment
Ġre tic
c m
Ġgener ada
ĠB erta
Ġmit ologia
ĠEn giny
Ġcos ÃŃ
F i
Ġseri osos
Ġocup ants
× Ĳ
ĠFran Ã§ois
Ġbis bat
U CIÃĵ
Ġins ult
Ġra ta
ÃŃ rez
ES S
Ġperman entment
ex tracciÃ³
ĠElis abet
Î± Î¹
Ġvul gar
ĠEste ban
ĠL and
ĠMon tes
Ġn on
ins a
aplica cions
mo re
Ġan tel
Ġcons ist
ĠArrib a
ĠJus sÃł
Ġatre ure
ĠBB VA
Ġindivid ualment
Ġtu it
ĠintÃ¨rp rets
âĤ¬ .
ĠB it
omp lex
Ġus ant
________________________________ ________________________________
Ġgi tanos
Ġdeix Ãł
or gi
U AB
CION AL
Ġll adre
Ġpales tÃŃ
Ġimp edit
Ġllarg ada
Ġpi la
Ġguany Ãł
Pod em
Ġderi ven
Ã¨ lia
ĠJ ug
Ġs ia
Ġdiss et
po ol
Ġess encialment
ĠP LA
Ġespa Ã±ola
ĠH ill
Ġ-- >
Ġcastell era
Ġcuri osament
Ġpopular ment
Ġv s
ĠC ENT
Ġdesafia ment
eri da
Ġfunda cions
ĠGar zÃ³n
ĠClÃŃn ica
Ġdes d
ress in
Ġint ran
ĠCad ena
Ġcolon itzaciÃ³
AM I
ĠTecn olÃ²gic
Ġcomplem enta
ass alt
Ġrevel at
Ġmo cions
Ã¡ c
A U
ĠEug Ã¨nia
ĠPlan eta
Ġaquest os
tan tes
Ġtri o
Ġam ate
Ġperman ents
et z
ĠCar mel
ĠCa Ã±
ĠOc cident
Ġpol onÃ¨s
G S
Ġalluny ar
is ma
Ġgra v
l osa
inform Ãłtica
ant rop
ĠESP ANYA
ad jun
ĠT ordera
Ġtra um
Ġsof istic
Ġbru ixes
ĠRib ag
Ġfix es
Ġles bi
A pp
Ġdemos tr
ĠB erg
adolesc Ã¨ncia
Ġcomp orten
enci alitat
Ġgra mÃłtica
Ġimp ot
Orden aciÃ³
Ġagred ir
ĠMar gar
Ġide ologies
ĠâĤ¬ .
el ev
Ġcli queu
ac tiu
ĠTrob o
Ġagra Ã¯ment
Ġpseud Ã²nim
Ġlla vor
ha guessin
Ġmagatzem s
ĠAg ents
edi tar
lu a
ĠPl ans
ĠFran ce
Ġinnov adors
Ġin tac
C entre
Ġpron Ã²stic
Ï ī
ĠPO UM
li en
Ġref rig
Amp osta
Ġsovi Ã¨tic
ĠInform Ãłtica
ĠE ix
Ġdes ocupaciÃ³
ĠAl ber
Ġcontras enya
Ġja ciments
Ġ Ã³
d ades
ĠCad is
ves a
ĠF ord
con trac
Ġcompor tat
ĠMÃł rius
Ġbru ts
' Â«
im i
ĠM oto
Ġvide os
ĠMOL T
Å ¡
par aciÃ³
Ġpen ja
aproxim adament
ĠAM PL
irÃł m
l Ã¨r
Ġprim ordi
Ġoper ar
es fera
estr al
z za
ĠContin ua
Ġel los
equi vo
ĠMan olo
Ġcontribu eixen
istra ment
op le
r ina
Ġen du
ĠZ P
pol let
Ġreflex ion
ĠexplÃŃ cita
Es tadi
ĠEst her
om od
emb res
ĠAut on
Ġnoctur na
ĠCas es
Ġconscienci aciÃ³
Ġarque olÃ²gic
Ġdec eb
Ġrepe tint
Ġr entar
M onts
Ã§ anÃ¨s
Ġin visible
Ġparlament Ãłries
Ġdom inat
En davant
Ġad ulta
et c
ĠtÃŃ piques
ĠMo vistar
enca ix
Ġblaug ranes
Ġrepe tida
ĠTorro ella
et ti
Ġper Ã³
ĠTor na
Ġre habili
en cap
Ġta ur
Ġverm ells
ci ans
Aut oritat
ĠDem an
Ġtrip ulaciÃ³
Ġri v
ĠIsa ac
Ġpel eg
Ġrecoll int
ĠB ara
Ġpropor cionen
Ġfacil iten
h egemonia
Ġsepar ada
Ġins ub
ĠCons trucciÃ³
Ġestabl int
ĠâĢĭ âĢĭ
Ġopera tius
at ure
Ġcomp tant
Ġmol l
Ġcrim inals
Ġmus e
om er
en for
Ġguany s
ĠHa w
Ġn arc
truc cions
Ġcompar Ã¨ixer
ĠÃŃn tima
Ġbusca va
al liber
Ġca ient
Ã³rm ula
Ġgal eries
Ġdef ensiva
Ġassign at
Ġcompar tint
id orm
Ġ-------------------- -
us en
ĠPR IM
ĠLe e
obri rÃł
ĠPens eu
Ġro taciÃ³
Ġinde pe
Ġse pt
Ġva ques
Ãºni or
Ġmeravell Ã³s
ĠmÃº tua
ĠDi es
ĠSus ana
ocalip si
ĠmetÃł fora
eg ants
Ġasi Ãłtic
us et
ĠrÃłpid s
p op
Ġembar cacions
ĠVEG ADA
Ġmet ropolitÃł
ĠH on
Ġsubm erg
Ġtra ba
el t
ĠConstant ÃŃ
ĠPro posta
Ġuni forme
Ġpatro cini
ĠGu im
ĠFal ange
ex ca
ĠP OD
Ġgastron Ã²mica
ini o
Ġex trac
ar bres
tre m
obli dar
Ġá¼ Ĳ
Ġfla ma
ĠD ay
ĠCa macho
Ġvid res
ĠNa taciÃ³
Ġcul ler
Ġapos tant
Ġxi quet
Ġex tres
Ġalter acions
Ġcanta utor
Ġpu gen
ĠP es
Ġse ient
Ã¨m ica
os itats
ĠRam ÃŃrez
y ar
Ġprohib ida
Ġpri ori
ĠSindic atura
icis me
ent rades
aut onom
ita ria
ĠP ana
Ġdefici Ã¨ncies
EUR OPA
E ra
Ġgol ej
umen tals
ĠS ix
Ġvari at
ore da
Ġper dem
N e
Ġha guem
tr um
ti cisme
ĠxenÃ²f ob
Ġher Ã¨ncia
Ġmi rades
ĠEcon om
Ġele var
Ġmix ta
ĠProvÃŃn cia
ÃŃ l
ĠS au
ĠS tudi
ĠA leg
UL T
Ġdemana ven
no tices
Ġti mb
Ġfun cionals
ĠO F
ĠN au
Ġinspir ar
ĠT RE
ĠCar lo
Ġinf raccions
Ġmotiv at
Ġconjun tura
ad qui
ĠU SA
ĠCol Ã²nia
in eria
bac k
TAN T
EF E
Ãłn tica
i mb
Ġfia ble
Ġad oss
Ġrevolucion aris
Ġcar trÃ³
Ex teriors
de fin
ĠV ide
Ġfuncion at
Ġresp ond
ĠS ap
Ġconf ed
Ġdecep ciÃ³
Ġf icat
ĠPro grÃ©s
Ġguany arÃł
Ġfet ge
ĠDes pÃŃ
Ġru tina
ri ller
Ġ ;
ĠGas par
Ġar ri
ĠAnd roid
Ġorden ances
bo x
Ġmoder ada
Ġar b
ĠTÃ² quio
Ġb rot
Ġag Ã¨ncia
Ġencar ar
ĠP oli
Ġcar ros
Ġvalora cions
Ġfac tible
EU A
Ġparticip Ãł
ĠAc c
Ġenamor at
Ġclaus ura
le da
mpl ona
Ġgo ogle
Ġint ox
ĠBolÃŃ via
Ġ up
y Ã³
ug h
ĠCOV ID
Ġrepar ar
ent ro
Ġmem or
Ġgan ivet
Ġha ce
ĠShak espeare
ĠFl ores
@ @
Ġpressupos tÃłries
ĠhÃłbil s
Ġelec tricitat
T u
ĠFed erico
ĠRe forma
Ġfran cÃ©s
ĠAb ril
Ġescri via
Ġto vall
ed icciÃ³
r Ã¨
Ġrecal cat
Ġpin tada
us se
ĠBas es
Ġcorpora cions
ĠN OM
Ġl ux
k ers
f un
r ors
ĠacadÃ¨m iques
Ġcot Ã³
Ġhero i
Ġevolu cionat
erm o
Ġv ed
ĠVal entÃŃ
Ġamb i
Ġimm or
ĠInstitu cionals
Ġse ients
Ġcamin ada
Ġapar enÃ§a
Ġreflec teixen
Ġsubstitu eix
escol ars
Ġgra vats
ĠperÃŃ metre
Ġestim ular
fec te
Ġpreci osa
ĠD IREC
Ġllen ya
ren al
cri tes
Ġll est
Ġmexic Ãł
ĠBalta sar
Ġexca vacions
Ġconven ciment
y c
Ġc rip
Ġ omp
Ġanim a
Ġd re
Ġmor os
Ġfac ulta
Ġeuro diputats
at em
S empre
Ġtranscor regut
ĠK m
ĠGu arda
ĠS andro
Ġadap tats
ens enya
esc om
Ġen rera
Ġde gra
Ġpern il
Ġlle ig
Ġsen adors
G rup
fec tura
C F
r iss
ĠPe dag
ĠN in
EM B
ĠV id
Ġs uda
Ġequival ents
ĠQuer alt
ĠM ix
ed s
Ġenvol tada
gu essis
ĠRe vol
Ġatra ure
Ġman dra
equipa ments
euro diputat
ĠR EN
Ġarrib aven
ĠD era
Ġher bes
Ġab ol
Ġplan tilles
Ġregu lars
Ġdon de
C u
l ines
ofici alitat
Ġbrill ants
Ġdes m
ĠInter sindical
Ġacab aran
ĠL itu
ones es
zquier da
Ġno tat
ĠPres enta
Ġoport unes
Ġe tern
Ġsolid aris
te ts
ĠNo us
Ġsec s
ĠNey mar
ĠEs tar
Ġtri angle
N E
ĠSols onÃ¨s
li quin
Ġbar roc
esc an
ĠR A
l its
In fer
ĠE ric
Ġinten tava
Ġrat olÃŃ
Ġ19 26
Ġproteg eix
Ġfe bre
Ġdivul ga
er nes
Ġperjud ica
Ġpertany ia
ĠCon cepciÃ³
ĠNÃº Ã±ez
elabor ar
ĠAndre a
Ġsonde ig
ÃĪ S
Ġpl o
ĠMÃ¨ diques
ĠL ara
AC C
Ġcre ades
Ġpob ra
Al ba
ĠA plicaciÃ³
Ġgoverna mentals
Ġmat emÃłtic
ĠPu tin
ĠBen vol
Ġconc Ã³rrer
Ġt b
es morzar
ĠSup erc
ĠBau zÃ¡
Ġnomb rÃ³s
Ġdeix aria
Ġan ces
ĠMun taner
Ġcompta bil
Ġcons ten
Ġconten idor
Qu ina
Ġmam ÃŃfers
Ġtemp les
anomen en
ĠM am
ĠGro up
Ġdistin tes
Ġmes es
Ġ19 25
Ġpremi ar
un ir
fi quem
ĠO bert
Ġdin Ãłmic
Ġterres tres
estat us
C ada
G rÃłcies
ĠRod oreda
ĠAl coi
Ġpass e
onim at
Ġar mades
EU U
UR SS
Ġcontras tar
Ġorien tat
Ġmar bre
ĠEx isteixen
Ġpoder osa
Ġdesenvolup arÃł
Ã²g ica
á½ ·
Ġdur arÃł
ex istir
ĠMo is
Ġconsecu tius
Ġcaracter itzen
Ġnecess ito
er ad
ad her
ĠI de
Ġconvic cions
Ãº lies
ĠB R
di cionalment
ĠIsi dre
ĠS AN
Ġenca us
ĠOs tres
ĠCoincid int
L libertat
ĠPra ga
ana ir
Ġ ÃŃ
m asc
ĠPrem sa
estr anya
in vent
D urant
rim its
Ġmolt ÃŃssimes
ĠK as
ĠCient ÃŃfic
Ġign orar
fi quin
enfron ten
Ġresp irar
exhib iciÃ³
Ali anÃ§a
Ġtr oll
ĠH orta
ĠP rÃ²
ĠComerci al
j ord
ĠPa mplona
ver d
ĠDel gado
per siÃ³
incor pora
Ġc ria
in re
Ġac orda
Ġ19 21
Ġresid eix
n on
Ġur gÃ¨ncies
Ġinex istent
ĠF lu
Ġacostu mat
ga ta
ingÃ¼ isme
Ġemp ad
pod er
ĠSÃ¡ enz
g ement
ĠCo aliciÃ³
A stÃºries
tur alment
Ġalem anyes
n en
Â ¬
Ġaproxim ada
Ġrecuper ant
qu ena
ill os
ve i
m itj
Ġeng egat
Ġm ÃŃss
Ġper toca
Ġclav eguera
Ġpart ÃŃ
unta vui
Ġgra va
Ġintent o
ens is
amp liar
ĠD J
Ġocup ava
Ġaccel erar
OR I
C aixa
esc lav
par Ã¨ncia
Ġconegu i
f ron
Ġde vo
ot en
ĠAudiovis ual
vi ta
ĠGran ados
Ġsugger ir
rid o
Ġmen os
g icament
ĠC es
Ġbotifl ers
Ġin inter
ĠPer que
Ġsupervi vents
Ġdesitj o
h orta
ĠJa cin
lel es
ĠG es
Ġb os
Ġ11 4
ĠG UI
Ġemo cionant
Ãłu tica
ĠPh il
ass ab
ĠJo el
Ġ 000
Ġrepresenta tives
Ġtrob ats
Ġexpos ades
Ġsubhas ta
es pl
hab itual
ĠSal va
Ġf allar
Ġ19 10
Ġobtin gudes
Ġconcent ren
ĠV as
Ö µ
Ġf ruc
ĠU ll
Ġes o
Ġa igu
Ġconcent rats
ĠF E
itor al
uc rist
Ġagrada va
red emb
ĠâĢĵâĢĵâĢĵ âĢĵ-
d ell
Ġsuscep tibles
ĠCON C
Ġpic ar
199 0
Ġviola cions
la ps
ĠEn desa
ĠCÃ©s ar
prim er
at os
ĠB M
ĠFon tan
Ġpr endrÃł
ĠparrÃ² quies
o ut
ĠencapÃ§al ar
Ġremun tar
Ġdeix es
ĠP allar
Ġgra ms
ĠT enerife
Es tadÃŃstica
Ãł udio
Ġt om
esc Ãłndol
ĠconstruÃ¯ ts
acomi adament
Ġcastell ers
Ġx ef
Alz ira
Â· Â·
avor ir
Ġem esos
ĠR T
ĠCom peti
Ġma xim
Ġmen Ãºs
Qu in
ĠBar rera
Ġes tra
adis sos
Ġeixa mp
Ġdinam itzar
ĠD C
Ġportu guesa
Ġcap ellÃł
Ġretor na
Ġcl er
te dat
ĠMun tÃ©
ac lar
Ġarti ficials
Ġsen g
Ġdepend ent
Ġac cessibles
Ġb Ãºs
A ustrÃłlia
Ġes ten
rim onis
Ġes tÃŃ
ĠCon venciÃ³
Ġsign ada
Ġdec urs
on Ãłncia
Ġdirig int
Ġvac ants
Ġsob ra
Ġcim s
Ġvold rien
Ġdefens em
TA D
Ġj ej
re y
ĠFam ÃŃlies
rof eu
Ġrecoman at
G er
Ġpass adÃŃs
Ġinjus ta
Sab adell
Ġaler tar
erta des
Ġinform ant
il er
A le
ER AL
Ġrep ass
Ġdial Ã¨c
ĠW ag
ĠConvocat Ã²ria
Ġinde f
imag ino
ĠM og
G ra
Ġcontrov Ã¨rsia
Ġsom ri
Ġma yor
k r
ciclop Ã¨dia
Ġobjec tiva
ĠB ast
on eta
Ġins tar
Ġt oss
Ġp Ãłnic
bl anca
inc rementar
ĠcomenÃ§ o
Ġinterlocut Ã²ria
ĠG rec
Ġtut ela
il is
Ã² fil
Ġc ellers
Ġmix t
ĠR aquel
ĠcÃ²m odes
en tants
redemb arra
Ġrecop il
y le
Ġb eb
ĠPR O
vit ge
anunci s
ĠCom uns
ĠC lo
L as
Ġp df
ĠLlu Ã§anÃ¨s
Ġmar rÃ³
ĠMe teor
Ġofici s
oooo oooo
Ġgaran tida
Ġins eguretat
Ġfavor it
ĠRec entment
Ġcontext os
ĠSeg adors
ĠpolÃ¨m iques
ĠH ugo
ĠHi p
ĠGÃ¨n ere
an ades
Ġam fit
Ġinc ompl
institu cions
ĠV ac
Ġvari es
ĠApro vaciÃ³
ĠPerp Ã¨tua
ĠEsp ot
Ġincenti var
In terna
ĠHo use
Ġseg ment
via ble
Ġcre m
Ġcontinu ava
Ġvuit ena
ĠA gra
Ġdel ici
ĠImp uls
Ġevid Ã¨ncies
ĠaÃ¯ll ada
Ġaplic ades
ĠWi ki
Ġbanc Ãłries
ĠP OS
ĠD Ã©nia
Ġresid uals
Ġridic ul
ĠSocial istes
leg o
edic te
equival ent
Ġproc urar
C OM
Ġimm unitat
ĠTarra dellas
ĠMa tas
ri ga
Ġmons tre
Ġsignifica tivament
Ġdescon eixement
ĠM Ã³ra
pe tes
ı @
Ġdirig ia
Ġacompanya ment
idi omes
Ġprogres siu
des c
ĠmÃŃnim ament
Ġpres encials
P u
ĠLGT BI
RET IRAT
U GT
et ro
Ġ ombres
uny er
ro ig
i za
ĠAMPL IACIÃĵ
Ġsobre pass
Ġespera ven
ĠCre iem
Ġpret endre
Ġm ost
Ġafron ta
elp untavui
ĠF ORM
assign aciÃ³
Ġdep ura
ri f
Ġjo gu
Ġm ina
ĠI v
Ġincid ir
Ġantel aciÃ³
Ġb Ã³
Ġb uc
j assot
Ġtreball arÃł
esp at
Ġdu ta
ĠLuc as
Ġb aj
ĠH ui
Ġsal vaciÃ³
hi re
Ġcomp atri
en velliment
ĠCar l
enci as
Ġespec ula
E ix
Ġmarc ant
Ph one
Ġdes mes
du la
Ġmera vella
Ġlle gu
mer siÃ³
A la
Ġpropos ades
Ġreflex iona
ĠVic ens
ĠTex as
ĠN ep
ul in
Ġest ricte
Ġtar des
Ġin habilitaciÃ³
Ġ13 5
tor y
Ġenc oman
ver tir
Ġdial ec
Ġmod eraciÃ³
ĠG obierno
ĠGi ov
y right
lo vÃł
Ġpor tals
ER RA
pl Ãł
Ġven edors
Ġto x
Ġp ep
Ġbla us
ri an
emprened oria
ar ran
ĠCal vet
ĠH at
labor ant
Ġdesf eta
Ġs elva
ĠB ap
Ġberen ar
Ġindi ferent
pr ud
f ex
ĠEx tra
Ġprefer entment
on o
ĠH ores
ĠComun itats
Ġregu lat
Ġe g
jec tiu
Ġdestr uÃ¯t
Ġevolu ciona
Ġal coh
ĠRecord s
ĠProgra mes
lovÃł quia
Ġengan xar
Al liberament
ci os
Ġprevar icaciÃ³
ĠBer lin
ad ÃŃ
Ġmallor quina
as f
Ġimpu tats
Ġplebisci tÃłries
Ġtel esc
Ġproc ura
ĠEx plica
ĠGran s
ĠSal om
ĠMas nou
Ġtelevis iva
O f
Ġpropici ar
Ġcomb ats
ĠAss ocia
ĠAl len
alt h
ĠChristi an
tip lau
Ġcomprom esos
ĠOc tubre
Ã¯ x
ĠElec cions
ĠBas e
Ġpud or
Ġh orm
Ġafric Ãł
Ġsub til
ĠTrin itat
Ġtre va
Ġquad rada
Ġcord Ã³
ĠCar ol
Ġd ons
ĠO k
Ġpar atge
min ar
Ġinterpreta da
ĠF isi
Ġpat ent
u eta
Ġser via
Ġimp era
Ġcomp u
atur ats
inc lo
an cia
ĠG ay
ĠPh ilip
Ġresta blir
Ġga is
Ġvisu alitzaciÃ³
ĠB ang
Ġver itats
Ġdi etes
Ġapla ud
Ġel abora
pro c
Ãłm ia
Ġins ectes
rec on
ĠF ebrer
ĠmÃłs ters
ci Ã¨ncia
Ġpir ates
A h
Ġc any
ec able
P remi
Ġs opa
Ġpic ada
Ġfran ges
Ã³ l
Ġvol drÃł
Ġad quir
ar quebisbe
Ġacum ular
Ġveter Ãł
G V
Ġsof rir
ĠAc adÃ¨m
ĠGis pert
Ġpatr ulla
Ġestatunid enc
Ġurban ÃŃstics
o acute
ĠC ec
Ġpaper etes
Ġsec torials
ĠGerm Ãł
ec ologia
ĠMar quÃ¨s
ĠDic cionari
pro fes
ĠTÃ¨c nics
ent usias
Ġem in
P M
Ġpin z
ĠBis mut
ĠP rades
ĠPa ges
Ġrecon ci
Ġpro gen
Ġpr oss
Ġfl oral
ĠSab at
ĠAc tivitat
Ġbenefici Ãłria
ĠG ard
Ġco vid
Ġfals edat
lus trat
ale ts
ĠS als
par tid
Ġvis tiplau
Ġacab Ãł
J A
Ġpass atge
arca cions
ĠLlen gÃ¼es
ĠEstÃł s
Ġconf on
Ġcondi cionar
f us
ĠConstitu ent
Ġreac cion
Ġfir mat
ur nal
Ġsosp ites
Ġalum nat
tÃłn dard
Ġinform en
Ġtex tura
ĠFranc Ã¨s
eci n
Ġrefor Ã§at
Ġsint onia
B e
ei ro
ĠromÃłn tic
ĠpsÃŃ qu
ĠV ine
Ġprosper itat
Ġ[ +
ĠS pi
Ġconten ciosa
en taments
e os
Ġdispos arÃł
Ġins up
Ġsuc urs
Ġrecol za
ĠCA JEI
ĠL ÃŃnia
Ġtra uma
inici arÃł
b ren
osi us
ĠSec retÃłria
Ġad Ã©u
Ġdut xa
Ġe ficients
Ġdesemb oc
ĠBro wn
Ġsensi bilitats
Ġacomi ada
fec tes
ĠDu bl
Ġm ud
ins piraciÃ³
Ã²g ic
en otÃŃcies
EM P
Ġpat Ã¨tic
Ġpossi bili
Ġno d
f ant
Ġsimb ologia
ong s
en arÃł
Ġabund ants
Ġ ..
Ġh egem
Ġdin osa
Ã² lia
identi ficar
ama gar
pÃ¨ lag
ĠEs tim
Ġofer ia
Ġentre m
Ð ´
Ġt rien
Ġequilib rada
ent endrÃł
ĠGonz alo
Ġveri ficar
Ġprof e
Ġcos tarÃł
Ãĵ N
Ġconvi uen
ĠPag Ã¨s
Ã¯ bles
Ġvalenci anista
Ġsingular itat
os tra
Ġdetermin en
ĠDera a
Ġbas tants
ĠS audita
ez a
Ġper quÃ©
// //
Ġactu alitat
ant ÃŃ
Ġ( *
oc ell
Ġacc ess
Ġdesper tat
Ġb rigada
ĠDomÃ¨n ec
Ġli qu
camp anya
Ġf r
ins on
ĠMontg rÃŃ
Arquitec tura
Ġseg regaciÃ³
ĠWillia ms
Ġex tr
m und
Ġdif Ã³s
Ġpat ologies
ora ya
ĠS ET
pos icions
Ġcompa tibles
Ġ19 27
Ġenc anta
ĠP IM
Ġmar xes
ĠconvenÃ§ uda
Ġvot eu
Ġata quen
Ġretrob ar
ĠNe ws
ĠLl otja
n ant
Ġta pes
alitz em
Ġregistra da
Ġxen ofÃ²bia
Ġecos istemes
ĠCal ders
Ġcompl icacions
h Ãł
Ġcastellan oparlant
ĠWh ats
tu d
ed Ã¨ncia
Ġgiron ina
Ġs arc
Ġexp liqui
:: ::
Ġlimita des
ĠT ura
Ġcl or
Ġsalv atges
Ïĥ ÏĦ
ĠP assa
ĠT emp
alitz i
teix o
Ġin her
Ġ ombra
ambaix ador
ĠD y
Ġconstruc tiu
orden anÃ§a
Ġcel ebre
Ġsorg eixen
g ara
n vot
edi des
Ġtelevis iu
ĠnÃł ixer
Ġfem elles
ĠS pe
ĠConstan tin
Ġacab in
b ot
ĠCon go
ĠrÃ¨gim s
alum ini
Ġapar ent
Ã²r gia
ĠF as
Ð ¼
esde venir
p et
ĠSam uel
ep s
Ġbar reg
ass ociacions
Ġpe bre
Ġexig ent
Ã©r rez
Ġjub ilats
UN A
risti ans
tal la
ĠK al
Ġdesenvolup ades
ĠB ad
il es
Ġsegu ides
accep table
Ġpresid encials
Ġacus aciÃ³
at endre
m Ã³n
Ġen ginyeria
eb res
ub le
Ġimpos ada
inf antil
An tic
Ġpen jant
Ġefec tives
ĠO ne
Ġlegisla tiva
Ġin apropi
Ġconsul tades
F ac
ĠLlu ita
intro duir
Ġinves tir
on arÃł
id ores
ĠCas ino
ĠB uda
m Ã²nica
Ġtrans vas
Ġpreten siÃ³
Ġimp utat
ĠN as
Ġarrib Ã©s
ĠB atasuna
ĠTer ribas
gra fia
Ġpos aria
Ġdescon nexiÃ³
N AC
Ġbu ides
Ġlli gues
Ġ errades
un eix
Ġlli gades
Ġrot und
ĠEs par
ĠV ISCA
Ġgoverna mental
ĠbilingÃ¼ e
Ġdura ment
ĠVÃŃ deo
Ġanticapital ista
ĠL ola
Ġdon eu
Ġinvers a
ĠLl Ãłstima
Ġest ones
Ġconc urrÃ¨ncia
ĠcÃłn on
Ġsard ana
ĠRe ich
Ġo ci
Ġarr Ã²s
Ġrug bi
ĠTom Ã¡s
ĠComp ta
Ġretro cÃ©s
investig ador
los es
ĠF red
Ġsubs criure
Ġdestaca ble
Ġresum ir
Ġmod es
Ġrelle us
be tis
Ġcontinu ades
ix ot
Ġpu tes
si ona
ĠV lad
Ãłn dia
Ġpo Ã¨tic
199 4
Ġpren guin
Ġanti democrÃł
Ġexcur siÃ³
ĠCurs a
Ġqu o
titu cional
Ġac ta
Ġmar ins
Ġac on
Ġes mor
ĠF M
Es tÃł
ĠR at
Ġincapa Ã§os
Ġas ÃŃ
âĢĵ .
AC A
ĠDi rig
ana ment
Ġnin gu
P o
H ong
rÃł tica
ĠJ OS
Ġcaracter ÃŃstics
Ġnegoci ant
Ġul tim
ĠEspe cialment
op l
int endo
ĠC ull
T o
ĠV IL
Ġpa gues
Ġexplic o
ĠMa estrat
Ġanticip ades
Å ¾
ĠrÃ¨ plica
Ġreb ia
ĠH all
Ġab asta
Ġindirec ta
Ġimpos ades
on cel
Ġpor cs
/ _
wiki pedia
Ã²p ic
Ġdipos itar
amin g
Ġ19 12
ĠAprofi tant
ĠF reix
ĠLe vante
ĠU riel
Ġconsidera ven
U G
Ġj Ã³
ĠBof ill
Ġ1 19
Ãł rab
Ġten da
Ġrecer ques
Ġpot estat
Ġnoti ficar
osa x
i ans
Ġeduc adors
itz em
Ġtant o
Ġof f
ĠDa urada
ĠDivers es
Ġramb la
Ġti rada
ÑıÑıÑıÑıÑıÑıÑıÑıÑıÑıÑıÑıÑıÑıÑıÑı ÑıÑıÑıÑıÑıÑıÑıÑıÑıÑıÑıÑıÑıÑıÑıÑı
ĠF P
Ġinter fer
I CIÃĵ
ĠCAS T
ades a
Ġexerci nt
Ġpertin ent
Ġinsosten ible
Ġt emÃłtics
ĠDÃŃ ez
ord res
Ġadher it
Ġesc eni
et Ãł
ĠER PV
ĠBan kia
on ÃŃ
ost on
Ġesc assa
ĠS ul
Ġeconom ies
ĠM ili
199 3
Ġfes tiva
Ġb alla
ĠfreqÃ¼ Ã¨ncies
at letisme
ul adors
ĠExcur sionista
Ġma tat
f ol
enc Ãłs
Ġacompany en
Ġdura ciÃ³
ĠRi pollet
Ġcons piraciÃ³
Ġusu Ãłries
ÐĵÐĵÐĵÐĵ ÐĵÐĵÐĵÐĵ
Ġman d
Ġbar alles
P otser
Ġajus tar
Ġes tirar
ĠCor respon
ĠC CC
lli ure
Ġadher its
Ġincompa tible
Ġafeg eixen
end ria
sec retari
at ers
ho ven
Ġdim oni
ĠTall ers
Ġw e
ton e
ĠNapole Ã³
Ġet z
ĠveÃ¯ nals
Ġabs tenciÃ³
especi alitzaciÃ³
Ġan te
comp any
Ġdecidi m
ĠA igÃ¼es
ĠB in
Ġdelic at
Ġcur ric
ĠCC MA
Ġecolog ista
min g
Ġdetec ta
oni en
Ġcop es
Ġdescend ent
Ġgra ella
Ġse Ã±
Ġco ves
Ġp imes
Ġin ger
ÃŃn guez
ib ar
IT S
ag en
op ressiÃ³
Ġprop erament
Ġsep ul
uel o
ĠB ud
tis h
Ġvi urÃł
Ġvinc ular
Ġestatunid enca
Ġdit es
olÃŃ tics
in adament
itz adora
Ġsor pr
ĠCuri osament
A Z
Ġcor tes
Ġfemen ins
Ġsubministra ments
ĠLÃŃ ban
Ġexces sivament
ĠBell vitge
ot eques
Ġdeixar em
Ġac urada
Ãłb rica
ĠT Ãºria
Ġcavall eria
Ġllin da
tra cions
Ġquali ficats
Ġpleg ar
Os car
Ġsinc ron
assoli ment
Ġcatalan oparlant
. *
Ġcu iner
M M
ĠTrans ports
Ġaplaudi ments
ĠF Ã³rmula
cion alitzar
Ġj es
ĠI naugu
Ġhuman itÃłria
et x
S P
Ġesc assos
quÃŃ mica
ĠautÃ²ct ona
p ace
ĠJes ucrist
Ġda ma
19 85
Ġt un
Ġcla m
Ġirregular s
ĠP ica
itz ava
Ġvital itat
ĠR al
our ce
ĠpÃ¨ ls
Ġpa viment
Ġvolun tÃłries
Ġamp olla
Ġpatron als
" -
ĠF alles
ki e
ĠLu ÃŃs
Ġmascl istes
Ġvalor en
Ġsubscrip tor
Ġc ut
Ġsab rÃł
UN T
ĠCN I
ĠM ina
ĠvÃŃ dua
Ġemp ord
ĠAc adem
Ġpropor cions
ĠMac edÃ²nia
ĠSoci ety
Ġcent ren
amb dues
Ġembol ic
ĠPrim o
Ġtert Ãºlies
Ġir landÃ¨s
ass ades
Ġmul til
ĠF it
IF A
Ġsen tin
ob riment
Ġcor ba
Ġro c
camp ista
T er
Ġb ul
Ġfil tre
Ġbo jos
Ġconsecu tiva
Ġbat le
ĠDes embre
Ġfam oses
Ġ" ...
ex portaciÃ³
Ġin hib
ĠMus eus
ĠLitu Ãłnia
Ġviv endes
ov elles
abs tin
ĠMascar ell
Ġinves tit
Ġpatrimoni als
[...]
